{
  "version": "1.0",
  "truncation": {
    "direction": "Right",
    "max_length": 512,
    "strategy": "LongestFirst",
    "stride": 0
  },
  "padding": null,
  "added_tokens": [
    {
      "id": 0,
      "content": "<unk>",
      "single_word": false,
      "lstrip": false,
      "rstrip": false,
      "normalized": false,
      "special": true
    },
    {
      "id": 1,
      "content": "<s>",
      "single_word": false,
      "lstrip": false,
      "rstrip": false,
      "normalized": false,
      "special": true
    },
    {
      "id": 2,
      "content": "</s>",
      "single_word": false,
      "lstrip": false,
      "rstrip": false,
      "normalized": false,
      "special": true
    }
  ],
  "normalizer": {
    "type": "Sequence",
    "normalizers": [
      {
        "type": "Prepend",
        "prepend": "▁"
      },
      {
        "type": "Replace",
        "pattern": {
          "String": " "
        },
        "content": "▁"
      }
    ]
  },
  "pre_tokenizer": null,
  "post_processor": {
    "type": "TemplateProcessing",
    "single": [
      {
        "Sequence": {
          "id": "A",
          "type_id": 0
        }
      }
    ],
    "pair": [
      {
        "Sequence": {
          "id": "A",
          "type_id": 0
        }
      },
      {
        "Sequence": {
          "id": "B",
          "type_id": 1
        }
      }
    ],
    "special_tokens": {}
  },
  "decoder": {
    "type": "Sequence",
    "decoders": [
      {
        "type": "Replace",
        "pattern": {
          "String": "▁"
        },
        "content": " "
      },
      {
        "type": "ByteFallback"
      },
      {
        "type": "Fuse"
      },
      {
        "type": "Strip",
        "content": " ",
        "start": 1,
        "stop": 0
      }
    ]
  },
  "model": {
    "type": "BPE",
    "dropout": null,
    "unk_token": "<unk>",
    "continuing_subword_prefix": null,
    "end_of_word_suffix": null,
    "fuse_unk": true,
    "byte_fallback": true,
    "ignore_merges": false,
    "vocab": {
      "<unk>": 0,
      "<s>": 1,
      "</s>": 2,
      "0": 3,
      "1": 4,
      "2": 5,
      "3": 6,
      "4": 7,
      "5": 8,
      "6": 9,
      "7": 10,
      "8": 11,
      "9": 12,
      "٠": 13,
      "١": 14,
      "٢": 15,
      "٣": 16,
      "٤": 17,
      "٥": 18,
      "٦": 19,
      "٧": 20,
      "٨": 21,
      "٩": 22,
      "<0x00>": 23,
      "<0x01>": 24,
      "<0x02>": 25,
      "<0x03>": 26,
      "<0x04>": 27,
      "<0x05>": 28,
      "<0x06>": 29,
      "<0x07>": 30,
      "<0x08>": 31,
      "<0x09>": 32,
      "<0x0A>": 33,
      "<0x0B>": 34,
      "<0x0C>": 35,
      "<0x0D>": 36,
      "<0x0E>": 37,
      "<0x0F>": 38,
      "<0x10>": 39,
      "<0x11>": 40,
      "<0x12>": 41,
      "<0x13>": 42,
      "<0x14>": 43,
      "<0x15>": 44,
      "<0x16>": 45,
      "<0x17>": 46,
      "<0x18>": 47,
      "<0x19>": 48,
      "<0x1A>": 49,
      "<0x1B>": 50,
      "<0x1C>": 51,
      "<0x1D>": 52,
      "<0x1E>": 53,
      "<0x1F>": 54,
      "<0x20>": 55,
      "<0x21>": 56,
      "<0x22>": 57,
      "<0x23>": 58,
      "<0x24>": 59,
      "<0x25>": 60,
      "<0x26>": 61,
      "<0x27>": 62,
      "<0x28>": 63,
      "<0x29>": 64,
      "<0x2A>": 65,
      "<0x2B>": 66,
      "<0x2C>": 67,
      "<0x2D>": 68,
      "<0x2E>": 69,
      "<0x2F>": 70,
      "<0x30>": 71,
      "<0x31>": 72,
      "<0x32>": 73,
      "<0x33>": 74,
      "<0x34>": 75,
      "<0x35>": 76,
      "<0x36>": 77,
      "<0x37>": 78,
      "<0x38>": 79,
      "<0x39>": 80,
      "<0x3A>": 81,
      "<0x3B>": 82,
      "<0x3C>": 83,
      "<0x3D>": 84,
      "<0x3E>": 85,
      "<0x3F>": 86,
      "<0x40>": 87,
      "<0x41>": 88,
      "<0x42>": 89,
      "<0x43>": 90,
      "<0x44>": 91,
      "<0x45>": 92,
      "<0x46>": 93,
      "<0x47>": 94,
      "<0x48>": 95,
      "<0x49>": 96,
      "<0x4A>": 97,
      "<0x4B>": 98,
      "<0x4C>": 99,
      "<0x4D>": 100,
      "<0x4E>": 101,
      "<0x4F>": 102,
      "<0x50>": 103,
      "<0x51>": 104,
      "<0x52>": 105,
      "<0x53>": 106,
      "<0x54>": 107,
      "<0x55>": 108,
      "<0x56>": 109,
      "<0x57>": 110,
      "<0x58>": 111,
      "<0x59>": 112,
      "<0x5A>": 113,
      "<0x5B>": 114,
      "<0x5C>": 115,
      "<0x5D>": 116,
      "<0x5E>": 117,
      "<0x5F>": 118,
      "<0x60>": 119,
      "<0x61>": 120,
      "<0x62>": 121,
      "<0x63>": 122,
      "<0x64>": 123,
      "<0x65>": 124,
      "<0x66>": 125,
      "<0x67>": 126,
      "<0x68>": 127,
      "<0x69>": 128,
      "<0x6A>": 129,
      "<0x6B>": 130,
      "<0x6C>": 131,
      "<0x6D>": 132,
      "<0x6E>": 133,
      "<0x6F>": 134,
      "<0x70>": 135,
      "<0x71>": 136,
      "<0x72>": 137,
      "<0x73>": 138,
      "<0x74>": 139,
      "<0x75>": 140,
      "<0x76>": 141,
      "<0x77>": 142,
      "<0x78>": 143,
      "<0x79>": 144,
      "<0x7A>": 145,
      "<0x7B>": 146,
      "<0x7C>": 147,
      "<0x7D>": 148,
      "<0x7E>": 149,
      "<0x7F>": 150,
      "<0x80>": 151,
      "<0x81>": 152,
      "<0x82>": 153,
      "<0x83>": 154,
      "<0x84>": 155,
      "<0x85>": 156,
      "<0x86>": 157,
      "<0x87>": 158,
      "<0x88>": 159,
      "<0x89>": 160,
      "<0x8A>": 161,
      "<0x8B>": 162,
      "<0x8C>": 163,
      "<0x8D>": 164,
      "<0x8E>": 165,
      "<0x8F>": 166,
      "<0x90>": 167,
      "<0x91>": 168,
      "<0x92>": 169,
      "<0x93>": 170,
      "<0x94>": 171,
      "<0x95>": 172,
      "<0x96>": 173,
      "<0x97>": 174,
      "<0x98>": 175,
      "<0x99>": 176,
      "<0x9A>": 177,
      "<0x9B>": 178,
      "<0x9C>": 179,
      "<0x9D>": 180,
      "<0x9E>": 181,
      "<0x9F>": 182,
      "<0xA0>": 183,
      "<0xA1>": 184,
      "<0xA2>": 185,
      "<0xA3>": 186,
      "<0xA4>": 187,
      "<0xA5>": 188,
      "<0xA6>": 189,
      "<0xA7>": 190,
      "<0xA8>": 191,
      "<0xA9>": 192,
      "<0xAA>": 193,
      "<0xAB>": 194,
      "<0xAC>": 195,
      "<0xAD>": 196,
      "<0xAE>": 197,
      "<0xAF>": 198,
      "<0xB0>": 199,
      "<0xB1>": 200,
      "<0xB2>": 201,
      "<0xB3>": 202,
      "<0xB4>": 203,
      "<0xB5>": 204,
      "<0xB6>": 205,
      "<0xB7>": 206,
      "<0xB8>": 207,
      "<0xB9>": 208,
      "<0xBA>": 209,
      "<0xBB>": 210,
      "<0xBC>": 211,
      "<0xBD>": 212,
      "<0xBE>": 213,
      "<0xBF>": 214,
      "<0xC0>": 215,
      "<0xC1>": 216,
      "<0xC2>": 217,
      "<0xC3>": 218,
      "<0xC4>": 219,
      "<0xC5>": 220,
      "<0xC6>": 221,
      "<0xC7>": 222,
      "<0xC8>": 223,
      "<0xC9>": 224,
      "<0xCA>": 225,
      "<0xCB>": 226,
      "<0xCC>": 227,
      "<0xCD>": 228,
      "<0xCE>": 229,
      "<0xCF>": 230,
      "<0xD0>": 231,
      "<0xD1>": 232,
      "<0xD2>": 233,
      "<0xD3>": 234,
      "<0xD4>": 235,
      "<0xD5>": 236,
      "<0xD6>": 237,
      "<0xD7>": 238,
      "<0xD8>": 239,
      "<0xD9>": 240,
      "<0xDA>": 241,
      "<0xDB>": 242,
      "<0xDC>": 243,
      "<0xDD>": 244,
      "<0xDE>": 245,
      "<0xDF>": 246,
      "<0xE0>": 247,
      "<0xE1>": 248,
      "<0xE2>": 249,
      "<0xE3>": 250,
      "<0xE4>": 251,
      "<0xE5>": 252,
      "<0xE6>": 253,
      "<0xE7>": 254,
      "<0xE8>": 255,
      "<0xE9>": 256,
      "<0xEA>": 257,
      "<0xEB>": 258,
      "<0xEC>": 259,
      "<0xED>": 260,
      "<0xEE>": 261,
      "<0xEF>": 262,
      "<0xF0>": 263,
      "<0xF1>": 264,
      "<0xF2>": 265,
      "<0xF3>": 266,
      "<0xF4>": 267,
      "<0xF5>": 268,
      "<0xF6>": 269,
      "<0xF7>": 270,
      "<0xF8>": 271,
      "<0xF9>": 272,
      "<0xFA>": 273,
      "<0xFB>": 274,
      "<0xFC>": 275,
      "<0xFD>": 276,
      "<0xFE>": 277,
      "<0xFF>": 278,
      "ال": 279,
      "▁ال": 280,
      "▁م": 281,
      "▁و": 282,
      "▁t": 283,
      "▁a": 284,
      "in": 285,
      "he": 286,
      "▁ب": 287,
      "re": 288,
      "▁ف": 289,
      "▁ل": 290,
      "on": 291,
      "▁ع": 292,
      "▁the": 293,
      "er": 294,
      "ان": 295,
      "▁أ": 296,
      "▁ت": 297,
      "ات": 298,
      "▁الم": 299,
      "▁s": 300,
      "at": 301,
      "ار": 302,
      "ية": 303,
      "en": 304,
      "▁o": 305,
      "▁ي": 306,
      "▁w": 307,
      "▁c": 308,
      "▁في": 309,
      "▁من": 310,
      "or": 311,
      "it": 312,
      "▁ا": 313,
      "an": 314,
      "is": 315,
      "ين": 316,
      "ed": 317,
      "es": 318,
      "▁p": 319,
      "al": 320,
      "ام": 321,
      "▁f": 322,
      "▁b": 323,
      "▁ك": 324,
      "▁an": 325,
      "ing": 326,
      "ar": 327,
      "▁in": 328,
      "▁of": 329,
      "لى": 330,
      "ها": 331,
      "ou": 332,
      "▁m": 333,
      "▁d": 334,
      "ير": 335,
      "ion": 336,
      "ic": 337,
      "▁to": 338,
      "▁،": 339,
      "▁ح": 340,
      "ول": 341,
      "نا": 342,
      "▁وال": 343,
      "as": 344,
      "▁س": 345,
      "le": 346,
      "▁and": 347,
      "▁.": 348,
      "▁ق": 349,
      "را": 350,
      "▁إ": 351,
      "ري": 352,
      "ون": 353,
      "لي": 354,
      "▁الت": 355,
      "▁h": 356,
      "لا": 357,
      "ro": 358,
      "▁ه": 359,
      "▁(": 360,
      "▁الع": 361,
      "ما": 362,
      "▁ن": 363,
      "--": 364,
      "▁th": 365,
      "وا": 366,
      "ent": 367,
      "دي": 368,
      "ست": 369,
      "▁الأ": 370,
      "▁على": 371,
      "ور": 372,
      "▁ج": 373,
      "▁re": 374,
      "اب": 375,
      "ct": 376,
      "om": 377,
      "▁n": 378,
      "el": 379,
      "et": 380,
      "▁ش": 381,
      "il": 382,
      "▁T": 383,
      "▁-": 384,
      "st": 385,
      "▁الح": 386,
      "▁لل": 387,
      "▁l": 388,
      "بي": 389,
      "id": 390,
      "▁الس": 391,
      "▁e": 392,
      "▁ر": 393,
      "له": 394,
      "▁A": 395,
      "يا": 396,
      "▁I": 397,
      "▁S": 398,
      "▁خ": 399,
      "▁\"": 400,
      "▁ص": 401,
      "دا": 402,
      "▁g": 403,
      "هم": 404,
      "ot": 405,
      "▁أن": 406,
      "im": 407,
      "▁عن": 408,
      "ut": 409,
      "ve": 410,
      "ig": 411,
      "▁الا": 412,
      "▁بال": 413,
      "وم": 414,
      "▁C": 415,
      "دة": 416,
      "ol": 417,
      "am": 418,
      "▁ان": 419,
      "ad": 420,
      "▁مع": 421,
      "▁is": 422,
      "ation": 423,
      "▁د": 424,
      "ac": 425,
      "us": 426,
      "▁الق": 427,
      "ly": 428,
      "..": 429,
      "▁الج": 430,
      "▁for": 431,
      "ur": 432,
      "ذا": 433,
      "▁be": 434,
      "يل": 435,
      "ow": 436,
      "لك": 437,
      "▁الش": 438,
      "▁on": 439,
      "اء": 440,
      "لم": 441,
      "ay": 442,
      "▁الب": 443,
      "▁:": 444,
      "un": 445,
      "▁الف": 446,
      "عد": 447,
      "▁that": 448,
      "▁P": 449,
      "من": 450,
      "اد": 451,
      "▁M": 452,
      "▁st": 453,
      "رب": 454,
      "ver": 455,
      "▁ما": 456,
      "رك": 457,
      "▁ط": 458,
      "▁الن": 459,
      "ائ": 460,
      "يد": 461,
      "▁الك": 462,
      "▁لا": 463,
      "ce": 464,
      "رة": 465,
      "ith": 466,
      "لة": 467,
      "عة": 468,
      "▁الد": 469,
      "ul": 470,
      "▁الص": 471,
      "----": 472,
      "▁الله": 473,
      "ir": 474,
      "رو": 475,
      "اف": 476,
      "se": 477,
      "حم": 478,
      "▁he": 479,
      "وق": 480,
      "▁y": 481,
      "▁B": 482,
      "ter": 483,
      "▁with": 484,
      "if": 485,
      "▁The": 486,
      "▁الإ": 487,
      "ارة": 488,
      "ني": 489,
      "ود": 490,
      "ch": 491,
      "▁con": 492,
      "▁as": 493,
      "▁الخ": 494,
      "بر": 495,
      "▁بن": 496,
      "▁it": 497,
      "▁إلى": 498,
      "يم": 499,
      "▁وت": 500,
      "قد": 501,
      "مل": 502,
      "▁الر": 503,
      "في": 504,
      "ra": 505,
      "اح": 506,
      "▁pro": 507,
      "قة": 508,
      "em": 509,
      "▁al": 510,
      "▁H": 511,
      "▁wh": 512,
      "▁W": 513,
      "يت": 514,
      "▁غ": 515,
      "ri": 516,
      "od": 517,
      "يس": 518,
      "▁علي": 519,
      "▁we": 520,
      "▁F": 521,
      "pe": 522,
      "▁v": 523,
      "ag": 524,
      "um": 525,
      "▁D": 526,
      "ab": 527,
      "ate": 528,
      "▁was": 529,
      "▁de": 530,
      "اع": 531,
      "سب": 532,
      "سم": 533,
      "res": 534,
      "يف": 535,
      "يه": 536,
      "نت": 537,
      "▁R": 538,
      "os": 539,
      "▁الذ": 540,
      "qu": 541,
      "▁L": 542,
      "her": 543,
      "est": 544,
      "pp": 545,
      "رف": 546,
      "مة": 547,
      "كن": 548,
      "▁وأ": 549,
      "ht": 550,
      "ist": 551,
      "▁at": 552,
      "ill": 553,
      "عل": 554,
      "▁N": 555,
      "مر": 556,
      "▁you": 557,
      "ld": 558,
      "ers": 559,
      "وب": 560,
      "يع": 561,
      "▁ذ": 562,
      "كر": 563,
      "▁com": 564,
      "th": 565,
      "▁$": 566,
      "▁ex": 567,
      "▁r": 568,
      "حت": 569,
      "and": 570,
      "oc": 571,
      "ant": 572,
      "▁se": 573,
      "ore": 574,
      "▁الو": 575,
      "▁G": 576,
      "▁by": 577,
      "▁E": 578,
      "▁تع": 579,
      "op": 580,
      "كم": 581,
      "قي": 582,
      "سي": 583,
      "ain": 584,
      "oun": 585,
      "▁or": 586,
      "▁لم": 587,
      "▁التي": 588,
      "▁أو": 589,
      "▁الط": 590,
      "ment": 591,
      "اه": 592,
      "نة": 593,
      "حد": 594,
      "ess": 595,
      "rom": 596,
      "▁are": 597,
      "ke": 598,
      "▁su": 599,
      "صر": 600,
      "بل": 601,
      "▁\\": 602,
      "▁)": 603,
      "ity": 604,
      "كل": 605,
      "iv": 606,
      "▁ث": 607,
      "▁كان": 608,
      "تم": 609,
      "اج": 610,
      "بد": 611,
      "▁وم": 612,
      "تي": 613,
      "صل": 614,
      "لام": 615,
      "ort": 616,
      "▁ha": 617,
      "خر": 618,
      "▁آ": 619,
      "جم": 620,
      "▁ne": 621,
      "قت": 622,
      "ذه": 623,
      "▁مح": 624,
      "وج": 625,
      "اني": 626,
      "▁not": 627,
      "==": 628,
      "▁هذا": 629,
      "▁ز": 630,
      "▁[": 631,
      "وي": 632,
      "ive": 633,
      "وع": 634,
      "جر": 635,
      "دم": 636,
      "end": 637,
      "جل": 638,
      "▁كل": 639,
      "با": 640,
      "▁from": 641,
      "art": 642,
      "ته": 643,
      "وف": 644,
      "ight": 645,
      "▁وه": 646,
      "▁*": 647,
      "ction": 648,
      "▁O": 649,
      "اص": 650,
      "▁الث": 651,
      "▁است": 652,
      "كت": 653,
      "عب": 654,
      "▁المت": 655,
      "red": 656,
      "لب": 657,
      "ies": 658,
      "▁مش": 659,
      "▁sh": 660,
      "عم": 661,
      "pt": 662,
      "▁مت": 663,
      "ud": 664,
      "ــ": 665,
      "لف": 666,
      "وس": 667,
      "ارات": 668,
      "شر": 669,
      "الم": 670,
      "▁un": 671,
      "--------": 672,
      "لال": 673,
      "ial": 674,
      "▁In": 675,
      "كون": 676,
      "▁كس": 677,
      "ell": 678,
      "▁الي": 679,
      "حمد": 680,
      "▁وا": 681,
      "te": 682,
      "ould": 683,
      "▁this": 684,
      "▁ch": 685,
      "رض": 686,
      "▁J": 687,
      "حة": 688,
      "▁have": 689,
      "▁le": 690,
      "ren": 691,
      "all": 692,
      "▁U": 693,
      "▁=": 694,
      "▁مس": 695,
      "در": 696,
      "عت": 697,
      "▁قال": 698,
      "our": 699,
      "يات": 700,
      "pl": 701,
      "▁us": 702,
      "راء": 703,
      "يز": 704,
      "▁بعد": 705,
      "أن": 706,
      "▁بين": 707,
      "وت": 708,
      "قال": 709,
      "▁ض": 710,
      "ust": 711,
      "▁والم": 712,
      "بار": 713,
      "عا": 714,
      "خت": 715,
      "ine": 716,
      "اض": 717,
      "جه": 718,
      "ie": 719,
      "fe": 720,
      "هر": 721,
      "ated": 722,
      "يب": 723,
      "▁k": 724,
      "ure": 725,
      "ge": 726,
      "فس": 727,
      "▁وس": 728,
      "قل": 729,
      "▁sa": 730,
      "▁ولا": 731,
      "ack": 732,
      "▁وب": 733,
      "ard": 734,
      "▁اب": 735,
      "اس": 736,
      "▁إن": 737,
      "▁هو": 738,
      "ich": 739,
      "ديد": 740,
      "يرة": 741,
      "up": 742,
      "▁,": 743,
      "وض": 744,
      "ثر": 745,
      "▁هذه": 746,
      "طة": 747,
      "▁الذي": 748,
      "og": 749,
      "▁وك": 750,
      "رق": 751,
      "▁اله": 752,
      "▁j": 753,
      "▁كسارة": 754,
      "out": 755,
      "▁يت": 756,
      "عي": 757,
      "▁تح": 758,
      "▁أي": 759,
      ".\"": 760,
      "ast": 761,
      "ost": 762,
      "خل": 763,
      "**": 764,
      "iz": 765,
      "ome": 766,
      "▁ab": 767,
      "ap": 768,
      "▁pl": 769,
      "ical": 770,
      "ريق": 771,
      "ند": 772,
      "ak": 773,
      "خص": 774,
      "قر": 775,
      "ib": 776,
      "▁عليه": 777,
      "▁يع": 778,
      "قا": 779,
      "▁me": 780,
      "▁whe": 781,
      "فا": 782,
      "der": 783,
      "اري": 784,
      "▁فى": 785,
      "▁can": 786,
      "▁tr": 787,
      "▁لت": 788,
      "ورة": 789,
      "وز": 790,
      "بة": 791,
      ").": 792,
      "ue": 793,
      "▁...": 794,
      "▁وي": 795,
      "▁له": 796,
      "ame": 797,
      "▁مص": 798,
      "▁أم": 799,
      "▁|": 800,
      "ans": 801,
      "▁res": 802,
      "▁عبد": 803,
      "▁مط": 804,
      "▁his": 805,
      "عض": 806,
      "age": 807,
      "▁were": 808,
      "▁{": 809,
      "ia": 810,
      "ide": 811,
      "ئيس": 812,
      "▁ad": 813,
      "ice": 814,
      "▁جم": 815,
      "▁cl": 816,
      "عر": 817,
      "ther": 818,
      "▁<": 819,
      "▁الغ": 820,
      "per": 821,
      "▁تم": 822,
      "▁im": 823,
      "cl": 824,
      "▁ذلك": 825,
      "▁بم": 826,
      "▁comp": 827,
      "حي": 828,
      "ub": 829,
      "فر": 830,
      "▁وع": 831,
      "▁K": 832,
      "ok": 833,
      "تى": 834,
      "ong": 835,
      "▁الى": 836,
      "دى": 837,
      "▁المس": 838,
      "سة": 839,
      "▁all": 840,
      "▁has": 841,
      "قول": 842,
      "ult": 843,
      "▁said": 844,
      "able": 845,
      "ركة": 846,
      "وات": 847,
      "ound": 848,
      "فت": 849,
      "ign": 850,
      "▁الز": 851,
      "▁تن": 852,
      "▁الل": 853,
      "▁wor": 854,
      "فض": 855,
      "الي": 856,
      "▁cont": 857,
      "▁..": 858,
      "ip": 859,
      "▁do": 860,
      "دين": 861,
      "oug": 862,
      "ass": 863,
      "▁Th": 864,
      "ase": 865,
      "ind": 866,
      "ous": 867,
      "▁go": 868,
      "ary": 869,
      "▁which": 870,
      "الة": 871,
      "▁الان": 872,
      "▁تص": 873,
      "ولة": 874,
      "act": 875,
      "one": 876,
      "▁but": 877,
      "انية": 878,
      "▁والت": 879,
      "▁المن": 880,
      "▁بر": 881,
      "ph": 882,
      "▁بت": 883,
      "وى": 884,
      "orm": 885,
      "▁ar": 886,
      "cc": 887,
      "إن": 888,
      "▁به": 889,
      "كس": 890,
      "ep": 891,
      "حن": 892,
      "▁أب": 893,
      "▁int": 894,
      "▁ول": 895,
      "ition": 896,
      "▁en": 897,
      "▁عند": 898,
      "ations": 899,
      "از": 900,
      "▁يم": 901,
      "ath": 902,
      "ear": 903,
      "▁المش": 904,
      "دد": 905,
      "▁نا": 906,
      "قط": 907,
      "▁will": 908,
      "ime": 909,
      "ارك": 910,
      "▁العام": 911,
      "بيع": 912,
      "{\\": 913,
      "▁للم": 914,
      "فع": 915,
      "▁هي": 916,
      "وان": 917,
      "▁محمد": 918,
      "▁غير": 919,
      "▁had": 920,
      "▁out": 921,
      "▁per": 922,
      "رج": 923,
      "وري": 924,
      "ff": 925,
      "به": 926,
      "▁/": 927,
      "رح": 928,
      "ty": 929,
      "نع": 930,
      "ber": 931,
      "ress": 932,
      "▁dis": 933,
      "طن": 934,
      "▁لي": 935,
      "حر": 936,
      "▁أس": 937,
      "رائ": 938,
      "حق": 939,
      "▁المع": 940,
      "كثر": 941,
      "du": 942,
      "ace": 943,
      "▁عم": 944,
      "▁تت": 945,
      "ده": 946,
      "▁خلال": 947,
      "▁مست": 948,
      "▁عام": 949,
      "لس": 950,
      "لق": 951,
      "ثل": 952,
      "▁الأم": 953,
      "ance": 954,
      "int": 955,
      "ne": 956,
      "▁يا": 957,
      "ry": 958,
      "▁qu": 959,
      "ence": 960,
      "▁“": 961,
      "▁قد": 962,
      "▁با": 963,
      "ru": 964,
      "وك": 965,
      "ذلك": 966,
      "▁ار": 967,
      "con": 968,
      "▁+": 969,
      "ile": 970,
      "▁«": 971,
      "ens": 972,
      "▁ات": 973,
      "ose": 974,
      "▁النا": 975,
      "▁كما": 976,
      "▁one": 977,
      "▁St": 978,
      "تها": 979,
      "▁they": 980,
      "طر": 981,
      "▁V": 982,
      "صف": 983,
      "▁ag": 984,
      "نس": 985,
      "ang": 986,
      "▁up": 987,
      "نى": 988,
      "▁المح": 989,
      "ليم": 990,
      "هد": 991,
      "▁اليوم": 992,
      "port": 993,
      "so": 994,
      "▁دا": 995,
      "▁العالم": 996,
      "ire": 997,
      "وقع": 998,
      "▁their": 999,
      "▁بد": 1000,
      "av": 1001,
      "وية": 1002,
      "====": 1003,
      "▁المست": 1004,
      "كي": 1005,
      "ents": 1006,
      "ًا": 1007,
      "▁بل": 1008,
      "ثير": 1009,
      "ory": 1010,
      "الية": 1011,
      "▁ام": 1012,
      "رت": 1013,
      "▁وج": 1014,
      "▁تق": 1015,
      "▁حتى": 1016,
      "▁so": 1017,
      "▁الأس": 1018,
      "▁قبل": 1019,
      "▁Y": 1020,
      "▁ومن": 1021,
      "ough": 1022,
      "...": 1023,
      "com": 1024,
      "▁حي": 1025,
      "ally": 1026,
      "▁الآ": 1027,
      "ربية": 1028,
      "),": 1029,
      "ite": 1030,
      "▁بش": 1031,
      "ach": 1032,
      "are": 1033,
      "▁ون": 1034,
      "غير": 1035,
      "▁'": 1036,
      "▁more": 1037,
      "▁المص": 1038,
      "رس": 1039,
      "▁part": 1040,
      "ions": 1041,
      "افة": 1042,
      "فة": 1043,
      "▁}": 1044,
      "ئة": 1045,
      "وه": 1046,
      "▁who": 1047,
      "▁تس": 1048,
      "▁مصر": 1049,
      "بت": 1050,
      "ely": 1051,
      "=\"": 1052,
      "ضا": 1053,
      "▁»": 1054,
      "own": 1055,
      "ord": 1056,
      "رد": 1057,
      "▁سي": 1058,
      "لت": 1059,
      "▁been": 1060,
      "وة": 1061,
      "ناء": 1062,
      "▁بس": 1063,
      "▁شي": 1064,
      "▁او": 1065,
      "▁اس": 1066,
      "▁منت": 1067,
      "ail": 1068,
      "▁would": 1069,
      "▁واح": 1070,
      "▁وح": 1071,
      "▁ev": 1072,
      "ks": 1073,
      "▁وز": 1074,
      "▁if": 1075,
      "▁man": 1076,
      "ors": 1077,
      "▁را": 1078,
      "▁الاست": 1079,
      "▁تش": 1080,
      "▁Ch": 1081,
      "ake": 1082,
      "ll": 1083,
      "بح": 1084,
      "ree": 1085,
      "▁An": 1086,
      "عية": 1087,
      "▁other": 1088,
      "vel": 1089,
      ");": 1090,
      "أس": 1091,
      "▁يوم": 1092,
      "▁sp": 1093,
      "لات": 1094,
      "▁li": 1095,
      "▁يج": 1096,
      "▁مج": 1097,
      "▁بي": 1098,
      "▁app": 1099,
      "ook": 1100,
      "▁وق": 1101,
      "▁its": 1102,
      "▁مد": 1103,
      "▁ثم": 1104,
      "▁الجم": 1105,
      "form": 1106,
      "حنة": 1107,
      "▁there": 1108,
      "كان": 1109,
      "▁her": 1110,
      "▁اي": 1111,
      "طم": 1112,
      "very": 1113,
      "▁انت": 1114,
      "▁فيه": 1115,
      "▁pre": 1116,
      "▁الدول": 1117,
      "بع": 1118,
      "▁تج": 1119,
      "lic": 1120,
      "قدم": 1121,
      "_{": 1122,
      "ian": 1123,
      "ount": 1124,
      "▁off": 1125,
      "rent": 1126,
      "▁It": 1127,
      "فضل": 1128,
      "وار": 1129,
      "▁اخ": 1130,
      "▁هنا": 1131,
      "▁gr": 1132,
      "oll": 1133,
      "▁about": 1134,
      "ates": 1135,
      "كا": 1136,
      "▁كت": 1137,
      "▁no": 1138,
      "▁sc": 1139,
      "قات": 1140,
      "▁وهو": 1141,
      "----------------": 1142,
      "ft": 1143,
      "▁بعض": 1144,
      "▁وفي": 1145,
      "▁my": 1146,
      "دات": 1147,
      "wo": 1148,
      "قه": 1149,
      "xt": 1150,
      "ديث": 1151,
      "تر": 1152,
      "▁also": 1153,
      "fter": 1154,
      "▁_": 1155,
      "we": 1156,
      "de": 1157,
      "ظر": 1158,
      "▁He": 1159,
      "▁over": 1160,
      "▁الام": 1161,
      "اً": 1162,
      "ric": 1163,
      "نية": 1164,
      "▁حيث": 1165,
      "▁السع": 1166,
      "▁وان": 1167,
      "بير": 1168,
      "▁بح": 1169,
      "ov": 1170,
      "erv": 1171,
      "▁مطحنة": 1172,
      "اط": 1173,
      "▁عمل": 1174,
      "aus": 1175,
      "▁وإ": 1176,
      "سلام": 1177,
      "وال": 1178,
      "راق": 1179,
      "▁your": 1180,
      "امل": 1181,
      "▁يمكن": 1182,
      "جلس": 1183,
      "▁any": 1184,
      "ob": 1185,
      "//": 1186,
      "urn": 1187,
      "ect": 1188,
      "▁الحجر": 1189,
      "▁when": 1190,
      "▁PM": 1191,
      "▁للت": 1192,
      "▁حس": 1193,
      "هل": 1194,
      "▁than": 1195,
      "ays": 1196,
      "}}": 1197,
      "▁ro": 1198,
      "▁pe": 1199,
      "▁خط": 1200,
      "▁te": 1201,
      "ضع": 1202,
      "يك": 1203,
      "خد": 1204,
      "▁year": 1205,
      "امج": 1206,
      "▁أنه": 1207,
      "mer": 1208,
      "▁>": 1209,
      "بط": 1210,
      "▁new": 1211,
      "▁لك": 1212,
      "صول": 1213,
      "جة": 1214,
      "▁time": 1215,
      "وني": 1216,
      "بات": 1217,
      "reat": 1218,
      "ew": 1219,
      "▁بالم": 1220,
      "ys": 1221,
      "حا": 1222,
      "رات": 1223,
      "▁some": 1224,
      "▁الموا": 1225,
      "old": 1226,
      "irst": 1227,
      "خدم": 1228,
      "ish": 1229,
      "ربي": 1230,
      "▁التع": 1231,
      "▁يكون": 1232,
      "▁اللي": 1233,
      "day": 1234,
      "▁وقال": 1235,
      "▁أخ": 1236,
      "ابة": 1237,
      "نه": 1238,
      "▁ست": 1239,
      "رم": 1240,
      "▁رئيس": 1241,
      "erm": 1242,
      "▁لو": 1243,
      "رياض": 1244,
      "ces": 1245,
      "▁&": 1246,
      "▁نفس": 1247,
      "زل": 1248,
      "▁؟": 1249,
      "▁#": 1250,
      "ark": 1251,
      "كوم": 1252,
      "هب": 1253,
      "▁am": 1254,
      "ove": 1255,
      "cre": 1256,
      "iss": 1257,
      "▁وش": 1258,
      "ings": 1259,
      "▁موا": 1260,
      "▁العمل": 1261,
      "hed": 1262,
      "▁–": 1263,
      "▁حد": 1264,
      "▁into": 1265,
      "لاث": 1266,
      "▁فيها": 1267,
      "▁bet": 1268,
      "▁تط": 1269,
      "▁إذا": 1270,
      "ديم": 1271,
      "▁مم": 1272,
      "عه": 1273,
      "▁inter": 1274,
      "▁مؤ": 1275,
      "▁acc": 1276,
      "▁two": 1277,
      "pect": 1278,
      "▁ين": 1279,
      "▁محطم": 1280,
      "عار": 1281,
      "▁ولك": 1282,
      "▁آلة": 1283,
      "حدة": 1284,
      "gr": 1285,
      "ولا": 1286,
      "▁لكن": 1287,
      "صة": 1288,
      "▁she": 1289,
      "طف": 1290,
      "▁ابن": 1291,
      "ade": 1292,
      "▁ظ": 1293,
      "تما": 1294,
      "▁them": 1295,
      "▁rec": 1296,
      "▁وف": 1297,
      "▁kn": 1298,
      "eth": 1299,
      "ركز": 1300,
      "يج": 1301,
      "زم": 1302,
      "▁رس": 1303,
      "قم": 1304,
      "ater": 1305,
      "▁جميع": 1306,
      "▁القر": 1307,
      "▁We": 1308,
      "▁فت": 1309,
      "▁كانت": 1310,
      "صد": 1311,
      "ied": 1312,
      "clud": 1313,
      "▁الات": 1314,
      "row": 1315,
      "ific": 1316,
      "▁Un": 1317,
      "يني": 1318,
      "خط": 1319,
      "▁البي": 1320,
      "▁des": 1321,
      "▁ass": 1322,
      "amp": 1323,
      "حدث": 1324,
      "vers": 1325,
      "ريد": 1326,
      "▁صح": 1327,
      "▁أبو": 1328,
      "▁ob": 1329,
      "وعة": 1330,
      "َّ": 1331,
      "▁لأن": 1332,
      "ودية": 1333,
      "▁بها": 1334,
      "▁للبيع": 1335,
      "▁مثل": 1336,
      "rib": 1337,
      "شي": 1338,
      "▁لأ": 1339,
      "خرى": 1340,
      "▁المج": 1341,
      "▁الض": 1342,
      "ركات": 1343,
      "▁المد": 1344,
      "▁عدد": 1345,
      "قب": 1346,
      "ره": 1347,
      "▁after": 1348,
      "ata": 1349,
      "ug": 1350,
      "▁إلا": 1351,
      "ons": 1352,
      "▁اح": 1353,
      "▁pr": 1354,
      "▁يس": 1355,
      "▁Wh": 1356,
      "lect": 1357,
      "سبة": 1358,
      "▁work": 1359,
      "ced": 1360,
      "زة": 1361,
      "▁get": 1362,
      "ject": 1363,
      "▁يست": 1364,
      "▁under": 1365,
      "▁sy": 1366,
      "▁الشي": 1367,
      "▁وقد": 1368,
      "▁المنت": 1369,
      "ild": 1370,
      "اريخ": 1371,
      "▁cons": 1372,
      "pec": 1373,
      "ينا": 1374,
      "وط": 1375,
      "ink": 1376,
      "▁bl": 1377,
      "oup": 1378,
      "▁comm": 1379,
      "عات": 1380,
      "▁$\\": 1381,
      "▁تد": 1382,
      "▁what": 1383,
      "▁المؤ": 1384,
      "▁first": 1385,
      "▁Se": 1386,
      "▁مو": 1387,
      "اصة": 1388,
      "راج": 1389,
      "▁co": 1390,
      "▁bec": 1391,
      "ظام": 1392,
      "▁This": 1393,
      "▁والأ": 1394,
      "ick": 1395,
      "get": 1396,
      "▁gen": 1397,
      "▁rel": 1398,
      "rit": 1399,
      "فاع": 1400,
      "▁`": 1401,
      "▁أع": 1402,
      "جد": 1403,
      "داء": 1404,
      "ختلف": 1405,
      "▁فإن": 1406,
      "▁like": 1407,
      "▁dif": 1408,
      "▁!": 1409,
      "ause": 1410,
      "fect": 1411,
      "ديدة": 1412,
      "ident": 1413,
      "ious": 1414,
      "▁only": 1415,
      "وص": 1416,
      "aw": 1417,
      "طل": 1418,
      "مال": 1419,
      "▁sub": 1420,
      "igh": 1421,
      "▁بع": 1422,
      "▁دي": 1423,
      "ck": 1424,
      "▁أكثر": 1425,
      "▁reg": 1426,
      "وله": 1427,
      "مس": 1428,
      "▁act": 1429,
      "ليل": 1430,
      "▁تأ": 1431,
      "نان": 1432,
      "لاح": 1433,
      "[@": 1434,
      "اش": 1435,
      "وح": 1436,
      "▁فر": 1437,
      "▁تست": 1438,
      "▁نت": 1439,
      "▁him": 1440,
      "وضوع": 1441,
      "▁كيف": 1442,
      "ual": 1443,
      "▁بأ": 1444,
      "▁ind": 1445,
      "▁inv": 1446,
      "ماء": 1447,
      "داد": 1448,
      "يلة": 1449,
      "▁اش": 1450,
      "ref": 1451,
      "امة": 1452,
      "math": 1453,
      "▁يش": 1454,
      "▁يق": 1455,
      "رى": 1456,
      "ريم": 1457,
      "▁الرئيس": 1458,
      "▁أبي": 1459,
      "مان": 1460,
      "واء": 1461,
      "▁fl": 1462,
      "عمال": 1463,
      "▁fun": 1464,
      "▁Re": 1465,
      "▁وسلم": 1466,
      "▁يد": 1467,
      "ويت": 1468,
      "الح": 1469,
      "▁could": 1470,
      "ople": 1471,
      "▁our": 1472,
      "ارج": 1473,
      "بية": 1474,
      "بك": 1475,
      "▁ئ": 1476,
      "▁add": 1477,
      "كد": 1478,
      "انون": 1479,
      "قيق": 1480,
      "▁att": 1481,
      "▁As": 1482,
      "لاء": 1483,
      "\\]": 1484,
      "ودي": 1485,
      "ائل": 1486,
      "▁pol": 1487,
      "افظ": 1488,
      "ظم": 1489,
      "دينة": 1490,
      "▁صلى": 1491,
      "ليه": 1492,
      "oint": 1493,
      "▁pres": 1494,
      "tp": 1495,
      "▁لها": 1496,
      "ودة": 1497,
      "▁may": 1498,
      "▁شركة": 1499,
      "▁لن": 1500,
      "ont": 1501,
      "يش": 1502,
      "▁المم": 1503,
      "ock": 1504,
      "▁وكان": 1505,
      "▁just": 1506,
      "▁مخ": 1507,
      "باب": 1508,
      "hen": 1509,
      "عدين": 1510,
      "▁def": 1511,
      "هي": 1512,
      "ارية": 1513,
      "ارس": 1514,
      "فق": 1515,
      "▁AM": 1516,
      "ert": 1517,
      "قى": 1518,
      "iew": 1519,
      "▁تحت": 1520,
      "▁اج": 1521,
      "▁pos": 1522,
      "شف": 1523,
      "ood": 1524,
      "▁العم": 1525,
      "ular": 1526,
      "▁ولكن": 1527,
      "ited": 1528,
      "ative": 1529,
      "''": 1530,
      "زي": 1531,
      "▁والع": 1532,
      "صح": 1533,
      "ational": 1534,
      "▁يح": 1535,
      "▁قر": 1536,
      "ating": 1537,
      "▁حق": 1538,
      "ضي": 1539,
      "▁بالت": 1540,
      "▁سم": 1541,
      "▁ور": 1542,
      "▁mod": 1543,
      "▁وما": 1544,
      "▁المنا": 1545,
      "▁المتحدة": 1546,
      "ياس": 1547,
      "▁العربية": 1548,
      "ased": 1549,
      "cess": 1550,
      "فل": 1551,
      "▁التح": 1552,
      "هما": 1553,
      "▁سب": 1554,
      "طقة": 1555,
      "الى": 1556,
      "}$": 1557,
      "كية": 1558,
      "▁imp": 1559,
      "▁where": 1560,
      "▁انا": 1561,
      "الب": 1562,
      "زيد": 1563,
      "▁prov": 1564,
      "oy": 1565,
      "▁مق": 1566,
      "ومات": 1567,
      "▁هل": 1568,
      "▁المغ": 1569,
      "itt": 1570,
      "الات": 1571,
      "هور": 1572,
      "▁الرا": 1573,
      "://": 1574,
      "▁ph": 1575,
      "▁تف": 1576,
      "اق": 1577,
      "▁stud": 1578,
      "▁such": 1579,
      "▁طحن": 1580,
      "ma": 1581,
      "▁الأول": 1582,
      "اعة": 1583,
      "▁دول": 1584,
      "ذكر": 1585,
      "▁trans": 1586,
      "▁سن": 1587,
      "اك": 1588,
      "▁بأن": 1589,
      "ئية": 1590,
      "ict": 1591,
      "ذي": 1592,
      "oth": 1593,
      "▁em": 1594,
      "▁بط": 1595,
      "تك": 1596,
      "elf": 1597,
      "▁how": 1598,
      "اة": 1599,
      "روع": 1600,
      "سن": 1601,
      "ring": 1602,
      "▁يتم": 1603,
      "خدام": 1604,
      "نامج": 1605,
      "▁rem": 1606,
      "ix": 1607,
      "▁أح": 1608,
      "fore": 1609,
      "▁التن": 1610,
      "▁حول": 1611,
      "▁people": 1612,
      "▁ملي": 1613,
      "▁اع": 1614,
      "type": 1615,
      "tern": 1616,
      "▁i": 1617,
      "▁ret": 1618,
      "▁الوا": 1619,
      "ولى": 1620,
      "▁أش": 1621,
      "ution": 1622,
      "ween": 1623,
      "▁الاس": 1624,
      "▁did": 1625,
      "cent": 1626,
      "▁det": 1627,
      "انة": 1628,
      "▁``": 1629,
      "حو": 1630,
      "لط": 1631,
      "▁supp": 1632,
      "▁set": 1633,
      "▁الناس": 1634,
      "ise": 1635,
      "سبب": 1636,
      "▁use": 1637,
      "▁fe": 1638,
      "قتص": 1639,
      "stem": 1640,
      "▁جن": 1641,
      "اعد": 1642,
      "▁includ": 1643,
      "▁مصنع": 1644,
      "^{": 1645,
      "les": 1646,
      "اره": 1647,
      "الت": 1648,
      "▁then": 1649,
      "▁قط": 1650,
      "ility": 1651,
      "ئي": 1652,
      "li": 1653,
      "ning": 1654,
      "olog": 1655,
      "زيز": 1656,
      "▁للا": 1657,
      "دارة": 1658,
      "▁هناك": 1659,
      "ues": 1660,
      "ديات": 1661,
      "ond": 1662,
      "▁between": 1663,
      "ER": 1664,
      "▁المر": 1665,
      "▁need": 1666,
      "▁back": 1667,
      "لاق": 1668,
      "▁لان": 1669,
      "▁الذهب": 1670,
      "▁these": 1671,
      "▁exp": 1672,
      "ونة": 1673,
      "قع": 1674,
      "▁لما": 1675,
      "▁مك": 1676,
      "يران": 1677,
      "▁again": 1678,
      "▁val": 1679,
      "▁sign": 1680,
      "▁De": 1681,
      "▁--": 1682,
      "io": 1683,
      "راه": 1684,
      "▁سع": 1685,
      "cy": 1686,
      "▁بق": 1687,
      "وير": 1688,
      "ublic": 1689,
      "▁بك": 1690,
      "als": 1691,
      "rough": 1692,
      "ffect": 1693,
      "▁لح": 1694,
      "▁منه": 1695,
      "▁know": 1696,
      "ities": 1697,
      "يو": 1698,
      "ظيم": 1699,
      "▁ترك": 1700,
      "▁Al": 1701,
      "غي": 1702,
      "▁diffe": 1703,
      "▁الوق": 1704,
      "▁عليها": 1705,
      "▁الجز": 1706,
      "▁الاج": 1707,
      "▁منها": 1708,
      "ollow": 1709,
      "انات": 1710,
      "جات": 1711,
      "▁الفك": 1712,
      "▁الصح": 1713,
      "ange": 1714,
      "▁عبدال": 1715,
      "IN": 1716,
      "ريب": 1717,
      "يادة": 1718,
      "▁الار": 1719,
      "ضر": 1720,
      "▁اعت": 1721,
      "▁ليس": 1722,
      "▁Com": 1723,
      "ments": 1724,
      "ower": 1725,
      "ient": 1726,
      "▁السعودية": 1727,
      "▁أف": 1728,
      "ble": 1729,
      "رام": 1730,
      "▁منذ": 1731,
      "ode": 1732,
      "▁موقع": 1733,
      "▁السلام": 1734,
      "بس": 1735,
      "ah": 1736,
      "▁sur": 1737,
      "▁most": 1738,
      "▁التج": 1739,
      "ابات": 1740,
      "▁ac": 1741,
      "قبل": 1742,
      "ful": 1743,
      "▁تكون": 1744,
      "▁see": 1745,
      "▁دون": 1746,
      "ON": 1747,
      "▁should": 1748,
      "باح": 1749,
      "▁صور": 1750,
      "▁شخص": 1751,
      "▁حم": 1752,
      "▁بشكل": 1753,
      "ible": 1754,
      "▁عل": 1755,
      "ars": 1756,
      "فه": 1757,
      "ement": 1758,
      "▁وهي": 1759,
      ".,": 1760,
      "▁آخر": 1761,
      "شة": 1762,
      "▁رد": 1763,
      "حاد": 1764,
      "▁pat": 1765,
      "وث": 1766,
      "▁الأخ": 1767,
      "▁معدات": 1768,
      "uring": 1769,
      "▁sm": 1770,
      "▁فقط": 1771,
      "▁show": 1772,
      "iel": 1773,
      "▁أحد": 1774,
      "▁right": 1775,
      "جز": 1776,
      "يين": 1777,
      "ابع": 1778,
      "▁min": 1779,
      "▁الرياض": 1780,
      "▁through": 1781,
      "ائر": 1782,
      "▁form": 1783,
      "wn": 1784,
      "▁الكرة": 1785,
      "أة": 1786,
      "ex": 1787,
      "EN": 1788,
      "يام": 1789,
      "▁البل": 1790,
      "ize": 1791,
      "eral": 1792,
      "ظيف": 1793,
      "▁الحكوم": 1794,
      "▁ولي": 1795,
      "اله": 1796,
      "__": 1797,
      "▁عنه": 1798,
      "ics": 1799,
      "سات": 1800,
      "▁end": 1801,
      "▁الشيخ": 1802,
      "ax": 1803,
      "========": 1804,
      "ياء": 1805,
      "its": 1806,
      "غة": 1807,
      "▁سعر": 1808,
      "ures": 1809,
      "▁أول": 1810,
      "▁الوز": 1811,
      "▁خام": 1812,
      "▁result": 1813,
      "▁مجلس": 1814,
      "▁السي": 1815,
      "▁الذين": 1816,
      "▁But": 1817,
      "راف": 1818,
      "راك": 1819,
      "▁حل": 1820,
      "▁num": 1821,
      "لاف": 1822,
      "▁ري": 1823,
      "▁انه": 1824,
      "ctions": 1825,
      "روط": 1826,
      "▁because": 1827,
      "▁fin": 1828,
      "cept": 1829,
      "منت": 1830,
      "▁عبر": 1831,
      "▁used": 1832,
      "ينية": 1833,
      "▁والله": 1834,
      "▁أحمد": 1835,
      "▁يقول": 1836,
      "be": 1837,
      "ضاف": 1838,
      "sp": 1839,
      "▁مجم": 1840,
      "▁col": 1841,
      "كبر": 1842,
      "خذ": 1843,
      "▁want": 1844,
      "اذ": 1845,
      "▁جدا": 1846,
      "سان": 1847,
      "الث": 1848,
      "ork": 1849,
      "▁بإ": 1850,
      "▁احت": 1851,
      "hes": 1852,
      "▁البحر": 1853,
      "▁مر": 1854,
      "▁spec": 1855,
      "▁كم": 1856,
      "سل": 1857,
      "ros": 1858,
      "جنة": 1859,
      "ourt": 1860,
      "ull": 1861,
      "▁كبير": 1862,
      "▁produ": 1863,
      "شار": 1864,
      "مو": 1865,
      "علام": 1866,
      "ياه": 1867,
      "ينة": 1868,
      "▁inst": 1869,
      "▁ود": 1870,
      "▁now": 1871,
      "▁والح": 1872,
      "ank": 1873,
      "▁follow": 1874,
      "arg": 1875,
      "?\"": 1876,
      "other": 1877,
      "uch": 1878,
      "▁well": 1879,
      "▁اسم": 1880,
      "▁الدا": 1881,
      "امعة": 1882,
      "▁واحد": 1883,
      "لسط": 1884,
      "باد": 1885,
      "▁الإسلام": 1886,
      "ince": 1887,
      "▁وخ": 1888,
      "قص": 1889,
      "▁لب": 1890,
      "▁years": 1891,
      "ract": 1892,
      "man": 1893,
      "▁الوطن": 1894,
      "▁أيضا": 1895,
      "▁نس": 1896,
      "vern": 1897,
      "▁mon": 1898,
      "▁بما": 1899,
      "▁البر": 1900,
      "الك": 1901,
      "▁cor": 1902,
      "imes": 1903,
      "ديو": 1904,
      "مت": 1905,
      "انيا": 1906,
      "uc": 1907,
      "▁\\[": 1908,
      "▁عمر": 1909,
      "▁rep": 1910,
      "▁dist": 1911,
      "▁وص": 1912,
      "ins": 1913,
      "يري": 1914,
      "▁جز": 1915,
      "اركة": 1916,
      "▁ent": 1917,
      "right": 1918,
      "▁النس": 1919,
      "▁cell": 1920,
      "▁For": 1921,
      "فظ": 1922,
      "▁المط": 1923,
      "كتب": 1924,
      "ds": 1925,
      "▁And": 1926,
      "▁system": 1927,
      "ined": 1928,
      "فاق": 1929,
      "▁العامة": 1930,
      "ily": 1931,
      "▁للأ": 1932,
      "قاء": 1933,
      "ox": 1934,
      "▁call": 1935,
      "▁طريق": 1936,
      "املة": 1937,
      "▁وإن": 1938,
      "▁requ": 1939,
      "▁حدث": 1940,
      "read": 1941,
      "▁down": 1942,
      "وائ": 1943,
      "ww": 1944,
      "كتور": 1945,
      "](": 1946,
      "جن": 1947,
      "▁var": 1948,
      "رفة": 1949,
      "▁play": 1950,
      ",\"": 1951,
      "▁Let": 1952,
      "▁ty": 1953,
      "▁بلا": 1954,
      "err": 1955,
      "ta": 1956,
      "▁اخت": 1957,
      "▁؛": 1958,
      "▁sim": 1959,
      "ized": 1960,
      "▁count": 1961,
      "▁fact": 1962,
      "▁ذات": 1963,
      "ونا": 1964,
      "▁وط": 1965,
      "▁group": 1966,
      "let": 1967,
      "ool": 1968,
      "حه": 1969,
      "▁high": 1970,
      "اي": 1971,
      "air": 1972,
      "riv": 1973,
      "غم": 1974,
      "velop": 1975,
      "▁even": 1976,
      "لكة": 1977,
      "▁اذا": 1978,
      "ward": 1979,
      "▁تك": 1980,
      "ash": 1981,
      "▁ولم": 1982,
      "ms": 1983,
      "▁والس": 1984,
      "▁لع": 1985,
      "▁ap": 1986,
      "▁الثاني": 1987,
      "ادر": 1988,
      "▁ذكر": 1989,
      "}\\": 1990,
      "▁look": 1991,
      "ضافة": 1992,
      "راد": 1993,
      "▁فع": 1994,
      "ines": 1995,
      "▁class": 1996,
      "fr": 1997,
      "▁New": 1998,
      "▁dec": 1999,
      "▁أص": 2000,
      "لية": 2001,
      "شرة": 2002,
      "ateg": 2003,
      "ضاء": 2004,
      "طي": 2005,
      "▁Pro": 2006,
      "▁وقت": 2007,
      "▁report": 2008,
      "نين": 2009,
      "واب": 2010,
      "▁الانت": 2011,
      "▁فأ": 2012,
      "led": 2013,
      "▁before": 2014,
      "ياة": 2015,
      "▁make": 2016,
      "▁ke": 2017,
      "▁تلك": 2018,
      "▁data": 2019,
      "▁لإ": 2020,
      "▁bu": 2021,
      "▁ها": 2022,
      "▁اللا": 2023,
      "انا": 2024,
      "▁الفر": 2025,
      "▁tra": 2026,
      "arch": 2027,
      "The": 2028,
      "▁ext": 2029,
      "▁long": 2030,
      "ruct": 2031,
      "▁Q": 2032,
      "</": 2033,
      "يرا": 2034,
      "▁@": 2035,
      "راض": 2036,
      "▁stat": 2037,
      "▁تصني": 2038,
      "▁كنت": 2039,
      "▁مغ": 2040,
      "ثم": 2041,
      "▁كثير": 2042,
      "▁جديد": 2043,
      "ادة": 2044,
      "ng": 2045,
      "▁الحم": 2046,
      "▁here": 2047,
      "){": 2048,
      "▁الهند": 2049,
      "لع": 2050,
      "▁using": 2051,
      "ever": 2052,
      "تمع": 2053,
      "اضي": 2054,
      "▁way": 2055,
      "▁شيء": 2056,
      "▁ra": 2057,
      "ale": 2058,
      "fig": 2059,
      "صور": 2060,
      "▁والا": 2061,
      "any": 2062,
      "ريف": 2063,
      "ارب": 2064,
      "▁فه": 2065,
      "سك": 2066,
      "▁الملك": 2067,
      "▁سنة": 2068,
      "▁par": 2069,
      "▁don": 2070,
      "▁ثلاث": 2071,
      "▁every": 2072,
      "انب": 2073,
      "▁تر": 2074,
      "AT": 2075,
      "▁الصين": 2076,
      "gan": 2077,
      "سط": 2078,
      "▁فقال": 2079,
      "sh": 2080,
      "ife": 2081,
      "vent": 2082,
      "ريقة": 2083,
      "rest": 2084,
      "▁mem": 2085,
      "▁الخط": 2086,
      "▁aut": 2087,
      "▁رسول": 2088,
      "▁وذلك": 2089,
      "▁إس": 2090,
      "▁قائ": 2091,
      "▁point": 2092,
      "ages": 2093,
      "▁تحم": 2094,
      "▁const": 2095,
      "▁el": 2096,
      "ting": 2097,
      "وقف": 2098,
      "cond": 2099,
      "▁كلم": 2100,
      "▁op": 2101,
      "ليات": 2102,
      "▁الكت": 2103,
      "▁تعالى": 2104,
      "خب": 2105,
      "▁last": 2106,
      "يمة": 2107,
      "▁الحل": 2108,
      "▁تب": 2109,
      "▁وأن": 2110,
      "▁أفضل": 2111,
      "حل": 2112,
      "▁each": 2113,
      "▁بص": 2114,
      "ابه": 2115,
      "▁made": 2116,
      "▁رج": 2117,
      "طفال": 2118,
      "ويل": 2119,
      "▁صف": 2120,
      "pr": 2121,
      "ared": 2122,
      "the": 2123,
      "ES": 2124,
      "▁Is": 2125,
      "قتصاد": 2126,
      "▁سحق": 2127,
      "▁واست": 2128,
      "▁does": 2129,
      "▁عملية": 2130,
      "الد": 2131,
      "▁those": 2132,
      "دف": 2133,
      "anc": 2134,
      "▁gu": 2135,
      "ven": 2136,
      "▁med": 2137,
      "واصل": 2138,
      "▁cur": 2139,
      "▁فل": 2140,
      "▁many": 2141,
      "uss": 2142,
      "جي": 2143,
      "▁العلم": 2144,
      "▁العراق": 2145,
      "▁وجه": 2146,
      "روف": 2147,
      "▁very": 2148,
      "aking": 2149,
      "ضم": 2150,
      "ute": 2151,
      "▁يجب": 2152,
      "رش": 2153,
      "▁للح": 2154,
      "▁bel": 2155,
      "▁حال": 2156,
      "▁فقد": 2157,
      "me": 2158,
      "▁car": 2159,
      "يفة": 2160,
      "▁What": 2161,
      "▁وهذا": 2162,
      "▁three": 2163,
      "ants": 2164,
      "▁والإ": 2165,
      "AR": 2166,
      "ورية": 2167,
      "▁di": 2168,
      "to": 2169,
      "ically": 2170,
      "min": 2171,
      "الف": 2172,
      "▁الشر": 2173,
      "▁ارت": 2174,
      "ner": 2175,
      "lement": 2176,
      "▁مبار": 2177,
      "عادة": 2178,
      "▁mat": 2179,
      "▁same": 2180,
      "▁effect": 2181,
      "غط": 2182,
      "lp": 2183,
      "وء": 2184,
      "▁being": 2185,
      "▁lead": 2186,
      "▁pers": 2187,
      "▁السيا": 2188,
      "▁الموضوع": 2189,
      "▁different": 2190,
      "land": 2191,
      "))": 2192,
      "وما": 2193,
      "▁الإم": 2194,
      "▁partic": 2195,
      "▁test": 2196,
      "▁If": 2197,
      "OR": 2198,
      "ّة": 2199,
      "ator": 2200,
      "▁وَ": 2201,
      "▁ser": 2202,
      "▁المو": 2203,
      "ادي": 2204,
      "oci": 2205,
      "way": 2206,
      "ارت": 2207,
      "ec": 2208,
      "▁inte": 2209,
      "▁الصف": 2210,
      "نتاج": 2211,
      "▁رب": 2212,
      "rol": 2213,
      "▁الآن": 2214,
      "▁علم": 2215,
      "▁مما": 2216,
      "\",": 2217,
      "▁قص": 2218,
      "ابت": 2219,
      "▁أد": 2220,
      "▁البح": 2221,
      "يق": 2222,
      "روس": 2223,
      "▁est": 2224,
      "▁Z": 2225,
      "▁incre": 2226,
      "ave": 2227,
      "▁both": 2228,
      "ظهر": 2229,
      "▁x": 2230,
      "ters": 2231,
      "مية": 2232,
      "بلغ": 2233,
      "▁الدين": 2234,
      "▁اص": 2235,
      "اهد": 2236,
      "وجه": 2237,
      "pos": 2238,
      "▁للع": 2239,
      "ision": 2240,
      "co": 2241,
      "▁لهم": 2242,
      "خرج": 2243,
      "▁بسبب": 2244,
      "▁فيما": 2245,
      "قيقة": 2246,
      "▁return": 2247,
      "▁ins": 2248,
      "▁You": 2249,
      "▁الجن": 2250,
      "az": 2251,
      "irect": 2252,
      "▁case": 2253,
      "▁والد": 2254,
      "وفي": 2255,
      "ربع": 2256,
      "▁بوا": 2257,
      "▁العربي": 2258,
      "▁الوقت": 2259,
      "▁loc": 2260,
      "شت": 2261,
      "▁//": 2262,
      "▁برنامج": 2263,
      "▁find": 2264,
      "##": 2265,
      "▁الاجتما": 2266,
      "▁Ar": 2267,
      "▁عندما": 2268,
      "▁found": 2269,
      "▁أخرى": 2270,
      "ميم": 2271,
      "▁good": 2272,
      "▁hand": 2273,
      "ved": 2274,
      "▁الرح": 2275,
      "ason": 2276,
      "▁develop": 2277,
      "▁حجر": 2278,
      "illion": 2279,
      "\"}": 2280,
      "باء": 2281,
      "AN": 2282,
      "ضح": 2283,
      "▁Sh": 2284,
      "▁رقم": 2285,
      "▁يعني": 2286,
      "ek": 2287,
      "▁إلي": 2288,
      "▁str": 2289,
      "eng": 2290,
      "▁جه": 2291,
      "▁think": 2292,
      "....": 2293,
      "▁ear": 2294,
      "اته": 2295,
      "med": 2296,
      "▁الأن": 2297,
      "▁while": 2298,
      "▁resp": 2299,
      "▁say": 2300,
      "meric": 2301,
      "▁la": 2302,
      "▁التص": 2303,
      "ene": 2304,
      "vernment": 2305,
      "▁against": 2306,
      "▁tri": 2307,
      "ton": 2308,
      "زام": 2309,
      "▁المه": 2310,
      "▁نص": 2311,
      "!!": 2312,
      "fl": 2313,
      "ern": 2314,
      "▁شك": 2315,
      "rence": 2316,
      "▁[@": 2317,
      "ption": 2318,
      "طار": 2319,
      "▁وضع": 2320,
      "▁How": 2321,
      "بيرة": 2322,
      "▁own": 2323,
      "▁sl": 2324,
      "▁appro": 2325,
      "▁exper": 2326,
      "غيرة": 2327,
      "▁الساب": 2328,
      "▁الفت": 2329,
      "▁بالن": 2330,
      "▁cr": 2331,
      "انه": 2332,
      "▁Le": 2333,
      "▁عرض": 2334,
      "In": 2335,
      "سين": 2336,
      "▁رم": 2337,
      "▁قل": 2338,
      "ina": 2339,
      "gg": 2340,
      "ضة": 2341,
      "els": 2342,
      "ؤول": 2343,
      "▁much": 2344,
      "aint": 2345,
      "▁وغير": 2346,
      "▁import": 2347,
      "اهدة": 2348,
      "▁والن": 2349,
      "ism": 2350,
      "▁**": 2351,
      "▁القانون": 2352,
      "▁يص": 2353,
      "دية": 2354,
      "▁z": 2355,
      "▁anal": 2356,
      "▁help": 2357,
      "▁che": 2358,
      "بيق": 2359,
      "▁المخ": 2360,
      "دمات": 2361,
      "▁فلا": 2362,
      "وجد": 2363,
      "▁نج": 2364,
      "▁serv": 2365,
      "aj": 2366,
      "ense": 2367,
      "ams": 2368,
      "▁الإنس": 2369,
      "ik": 2370,
      "بيب": 2371,
      "خة": 2372,
      "▁ضد": 2373,
      "▁عدم": 2374,
      "▁منتديات": 2375,
      "▁بج": 2376,
      "▁علا": 2377,
      "▁تخ": 2378,
      "فيذ": 2379,
      "▁number": 2380,
      "▁مث": 2381,
      "▁المصر": 2382,
      "▁اد": 2383,
      "ield": 2384,
      "جيل": 2385,
      "▁Fr": 2386,
      "ases": 2387,
      "▁نق": 2388,
      "▁الحديث": 2389,
      "▁start": 2390,
      "▁ref": 2391,
      "طلب": 2392,
      "شاء": 2393,
      "اقة": 2394,
      "formation": 2395,
      "par": 2396,
      "▁public": 2397,
      "ouse": 2398,
      "▁بيع": 2399,
      "ices": 2400,
      "ought": 2401,
      "▁التعدين": 2402,
      "وبة": 2403,
      "▁حين": 2404,
      "▁جديدة": 2405,
      "▁اليمن": 2406,
      "هاز": 2407,
      "▁والش": 2408,
      "ody": 2409,
      "كو": 2410,
      "]{": 2411,
      "حيح": 2412,
      "رائيل": 2413,
      "▁الاحت": 2414,
      "ather": 2415,
      "▁fil": 2416,
      "▁العرب": 2417,
      "▁داخل": 2418,
      "▁حديث": 2419,
      "ورد": 2420,
      "▁support": 2421,
      "جب": 2422,
      ")$": 2423,
      "▁نوع": 2424,
      "(\\": 2425,
      "▁On": 2426,
      "br": 2427,
      "ained": 2428,
      "ann": 2429,
      "▁مب": 2430,
      "ients": 2431,
      "▁التق": 2432,
      "▁يف": 2433,
      "▁كتاب": 2434,
      "قاط": 2435,
      "يط": 2436,
      "alk": 2437,
      "▁char": 2438,
      "▁during": 2439,
      "put": 2440,
      "▁prote": 2441,
      "نيه": 2442,
      "غل": 2443,
      "واع": 2444,
      "لاة": 2445,
      "▁عد": 2446,
      "ists": 2447,
      "▁هم": 2448,
      "hat": 2449,
      "▁دور": 2450,
      "حات": 2451,
      "▁الثالث": 2452,
      "sc": 2453,
      "▁مل": 2454,
      "اعدة": 2455,
      "▁القط": 2456,
      "عبة": 2457,
      "ives": 2458,
      "view": 2459,
      "▁استخدام": 2460,
      "line": 2461,
      "▁وزير": 2462,
      "▁الحق": 2463,
      "زب": 2464,
      "alth": 2465,
      "oh": 2466,
      "لهم": 2467,
      "ired": 2468,
      "▁الظ": 2469,
      "::": 2470,
      "لمين": 2471,
      "▁مليون": 2472,
      "▁نها": 2473,
      "ts": 2474,
      "الأ": 2475,
      "▁والتي": 2476,
      "▁الدولة": 2477,
      "upp": 2478,
      "ency": 2479,
      "▁أنا": 2480,
      "جراء": 2481,
      "▁شر": 2482,
      "▁process": 2483,
      "▁ht": 2484,
      "ature": 2485,
      "▁يؤ": 2486,
      "▁نف": 2487,
      "افه": 2488,
      "ten": 2489,
      "▁مختلف": 2490,
      "app": 2491,
      "ier": 2492,
      "ومة": 2493,
      "▁اه": 2494,
      "▁دائ": 2495,
      "ائية": 2496,
      "ually": 2497,
      "St": 2498,
      "lear": 2499,
      "▁read": 2500,
      "▁et": 2501,
      "▁فا": 2502,
      "▁وث": 2503,
      "تين": 2504,
      "cur": 2505,
      "▁cent": 2506,
      "▁second": 2507,
      "▁Americ": 2508,
      "▁الشعب": 2509,
      "ified": 2510,
      "وبي": 2511,
      "فاء": 2512,
      "▁مه": 2513,
      "ظمة": 2514,
      "▁Tr": 2515,
      "▁state": 2516,
      "],": 2517,
      "▁عشر": 2518,
      "يار": 2519,
      "▁الاخ": 2520,
      "يره": 2521,
      "هاب": 2522,
      "آن": 2523,
      "▁still": 2524,
      "سه": 2525,
      "▁روا": 2526,
      "لاد": 2527,
      "\">": 2528,
      "جمع": 2529,
      "▁صاح": 2530,
      "ets": 2531,
      "▁function": 2532,
      "▁br": 2533,
      "▁gl": 2534,
      "http": 2535,
      "سا": 2536,
      "▁United": 2537,
      "ps": 2538,
      "▁بدا": 2539,
      "▁At": 2540,
      "▁sol": 2541,
      "▁great": 2542,
      "oad": 2543,
      "](#": 2544,
      "▁لدي": 2545,
      "▁عق": 2546,
      "طق": 2547,
      "▁أمام": 2548,
      "▁بيت": 2549,
      "ابل": 2550,
      "ness": 2551,
      "اتب": 2552,
      "هرب": 2553,
      "عضاء": 2554,
      "▁take": 2555,
      "▁تاريخ": 2556,
      "ample": 2557,
      "ethod": 2558,
      "▁offic": 2559,
      "عاون": 2560,
      "▁قوله": 2561,
      "▁level": 2562,
      "ames": 2563,
      "▁som": 2564,
      "مي": 2565,
      "ral": 2566,
      "▁poss": 2567,
      "▁الأولى": 2568,
      "ديل": 2569,
      "▁مجموعة": 2570,
      "▁وعلى": 2571,
      "▁أما": 2572,
      "وسط": 2573,
      "نك": 2574,
      "ided": 2575,
      "▁الدكتور": 2576,
      "دمة": 2577,
      "▁http": 2578,
      "▁world": 2579,
      "▁العق": 2580,
      "▁الحديد": 2581,
      "inal": 2582,
      "بيل": 2583,
      "▁day": 2584,
      "لاب": 2585,
      "▁السعر": 2586,
      "اهرة": 2587,
      "▁طلب": 2588,
      "▁بالإ": 2589,
      "وره": 2590,
      "جميع": 2591,
      "ذر": 2592,
      "mb": 2593,
      "ization": 2594,
      "▁law": 2595,
      "▁التعليم": 2596,
      "▁الشخص": 2597,
      "▁اف": 2598,
      "▁المملكة": 2599,
      "▁court": 2600,
      "َل": 2601,
      "▁X": 2602,
      "▁dep": 2603,
      "▁لكل": 2604,
      "▁الولا": 2605,
      "ِي": 2606,
      "▁عش": 2607,
      "ying": 2608,
      "▁ألف": 2609,
      "▁الخاصة": 2610,
      "cal": 2611,
      "▁نفسه": 2612,
      "ively": 2613,
      "oot": 2614,
      "uro": 2615,
      "raph": 2616,
      "▁لش": 2617,
      "▁المركز": 2618,
      "▁percent": 2619,
      "▁run": 2620,
      "▁disc": 2621,
      "▁equ": 2622,
      "▁without": 2623,
      "▁النبي": 2624,
      "▁ويت": 2625,
      "▁present": 2626,
      "▁She": 2627,
      "▁وتع": 2628,
      "َا": 2629,
      "▁av": 2630,
      "text": 2631,
      "خي": 2632,
      "▁السعودي": 2633,
      "نيا": 2634,
      "سبوع": 2635,
      "▁الأمن": 2636,
      "▁الخارج": 2637,
      "ross": 2638,
      "زيل": 2639,
      "زمة": 2640,
      "AL": 2641,
      "▁Con": 2642,
      "قام": 2643,
      "▁لنا": 2644,
      "نق": 2645,
      "▁fam": 2646,
      "▁iss": 2647,
      "▁Ad": 2648,
      "▁US": 2649,
      "▁مبا": 2650,
      "▁نحن": 2651,
      "val": 2652,
      "chn": 2653,
      "▁نظام": 2654,
      "▁الأح": 2655,
      "▁خاصة": 2656,
      "عى": 2657,
      "زا": 2658,
      "ider": 2659,
      "_{\\": 2660,
      "بدأ": 2661,
      "▁البحث": 2662,
      "yl": 2663,
      "▁ينا": 2664,
      "▁mark": 2665,
      "وريا": 2666,
      "▁العلا": 2667,
      "▁اث": 2668,
      "ving": 2669,
      "frac": 2670,
      "▁ومع": 2671,
      "دل": 2672,
      "TE": 2673,
      "▁مركز": 2674,
      "نف": 2675,
      "ret": 2676,
      "ional": 2677,
      "▁فال": 2678,
      "ane": 2679,
      "▁أغ": 2680,
      "▁dem": 2681,
      "▁طن": 2682,
      "▁child": 2683,
      "ission": 2684,
      "▁للش": 2685,
      "▁بالع": 2686,
      "▁وجود": 2687,
      "ital": 2688,
      "▁جنوب": 2689,
      "طني": 2690,
      "عدات": 2691,
      "▁قت": 2692,
      "▁التس": 2693,
      "▁met": 2694,
      "▁الأمري": 2695,
      "▁نحو": 2696,
      "بيه": 2697,
      "▁since": 2698,
      "▁appe": 2699,
      "افظة": 2700,
      "▁الاتحاد": 2701,
      "pro": 2702,
      "gin": 2703,
      "▁ed": 2704,
      "▁Cl": 2705,
      "▁الثق": 2706,
      "hip": 2707,
      "احة": 2708,
      "▁conf": 2709,
      "▁مكان": 2710,
      "▁شهر": 2711,
      "()": 2712,
      "▁خير": 2713,
      "انت": 2714,
      "ريقيا": 2715,
      "ron": 2716,
      "▁oper": 2717,
      "▁يحت": 2718,
      "▁term": 2719,
      "->": 2720,
      "tic": 2721,
      "ناعة": 2722,
      "خول": 2723,
      "AS": 2724,
      "روض": 2725,
      "****": 2726,
      "روح": 2727,
      "▁cre": 2728,
      "جاز": 2729,
      "▁الحكومة": 2730,
      "▁government": 2731,
      "غا": 2732,
      "▁مدينة": 2733,
      "▁كسارات": 2734,
      "▁لق": 2735,
      "▁الجديد": 2736,
      "▁البلد": 2737,
      "ffic": 2738,
      "ولي": 2739,
      "▁المعل": 2740,
      "self": 2741,
      "▁الحر": 2742,
      "▁جد": 2743,
      "]\\]": 2744,
      "وبر": 2745,
      "▁التش": 2746,
      "▁There": 2747,
      "▁إب": 2748,
      "▁ته": 2749,
      "▁war": 2750,
      "▁يب": 2751,
      "▁رأ": 2752,
      "til": 2753,
      "▁قدم": 2754,
      "ماع": 2755,
      "ger": 2756,
      "▁اغ": 2757,
      "▁الخاص": 2758,
      "▁مشروع": 2759,
      "▁Ex": 2760,
      "▁head": 2761,
      "امي": 2762,
      "▁non": 2763,
      "▁حسب": 2764,
      "حب": 2765,
      "ote": 2766,
      "▁واحدة": 2767,
      "▁الكثير": 2768,
      "▁قام": 2769,
      "▁الشركة": 2770,
      "▁small": 2771,
      "▁They": 2772,
      "▁must": 2773,
      "راهيم": 2774,
      "tr": 2775,
      "oid": 2776,
      "▁خص": 2777,
      "▁عالم": 2778,
      "ially": 2779,
      "▁جاء": 2780,
      "▁دولار": 2781,
      "ole": 2782,
      "لكتر": 2783,
      "ulation": 2784,
      "▁معل": 2785,
      "▁المحم": 2786,
      "▁أهم": 2787,
      "ished": 2788,
      "▁proble": 2789,
      "dition": 2790,
      "set": 2791,
      "▁order": 2792,
      "جاج": 2793,
      "▁مخروط": 2794,
      "▁التى": 2795,
      "▁month": 2796,
      "اما": 2797,
      "▁contin": 2798,
      "▁وزارة": 2799,
      "ارع": 2800,
      "▁اكثر": 2801,
      "▁الرس": 2802,
      "ument": 2803,
      "▁%": 2804,
      "▁بدون": 2805,
      "علن": 2806,
      "▁مشاهدة": 2807,
      "▁فريق": 2808,
      "وبا": 2809,
      "▁لس": 2810,
      "وش": 2811,
      "قرير": 2812,
      "صال": 2813,
      "ai": 2814,
      "▁let": 2815,
      "▁أهل": 2816,
      "▁fr": 2817,
      "▁activ": 2818,
      "برا": 2819,
      "▁person": 2820,
      "▁أجل": 2821,
      "▁del": 2822,
      "of": 2823,
      "▁expl": 2824,
      "▁ملا": 2825,
      "irc": 2826,
      "▁احد": 2827,
      "▁going": 2828,
      "▁real": 2829,
      "راسة": 2830,
      "▁والص": 2831,
      "rm": 2832,
      "▁طب": 2833,
      "علق": 2834,
      "▁أث": 2835,
      "]{}": 2836,
      "▁الثلاث": 2837,
      "▁invest": 2838,
      "تمر": 2839,
      "اعات": 2840,
      "▁التد": 2841,
      "▁الكويت": 2842,
      "▁open": 2843,
      "▁perform": 2844,
      "داول": 2845,
      "yn": 2846,
      "▁quest": 2847,
      "▁لله": 2848,
      "▁direct": 2849,
      "igned": 2850,
      "▁hum": 2851,
      "يلي": 2852,
      "ائق": 2853,
      "صار": 2854,
      "ونه": 2855,
      "َن": 2856,
      "▁الدولي": 2857,
      "▁المزيد": 2858,
      "ium": 2859,
      "bers": 2860,
      "ression": 2861,
      "▁الإس": 2862,
      "▁فض": 2863,
      "▁باب": 2864,
      "und": 2865,
      "▁التط": 2866,
      "▁study": 2867,
      "▁النف": 2868,
      "▁Ph": 2869,
      "iven": 2870,
      "داف": 2871,
      "ategory": 2872,
      "ذن": 2873,
      "ربة": 2874,
      "urs": 2875,
      "ولوج": 2876,
      "▁دع": 2877,
      "▁wom": 2878,
      "باس": 2879,
      "▁والف": 2880,
      "▁No": 2881,
      "hor": 2882,
      "ذك": 2883,
      "▁line": 2884,
      "▁تقدم": 2885,
      "$\\": 2886,
      "▁الفحم": 2887,
      "مين": 2888,
      "▁وين": 2889,
      "▁حالة": 2890,
      "▁قسم": 2891,
      "تهم": 2892,
      "ويه": 2893,
      "▁post": 2894,
      "less": 2895,
      "اهر": 2896,
      "▁around": 2897,
      "▁information": 2898,
      "وفر": 2899,
      "aim": 2900,
      "▁عليك": 2901,
      "ائي": 2902,
      "▁والق": 2903,
      "ural": 2904,
      "راءة": 2905,
      "}{": 2906,
      "▁تحميل": 2907,
      "▁stand": 2908,
      "▁Comm": 2909,
      "وين": 2910,
      "▁الأمر": 2911,
      "انع": 2912,
      "ياسية": 2913,
      "▁four": 2914,
      "▁نش": 2915,
      "▁\\[[@": 2916,
      "▁إليه": 2917,
      "▁مف": 2918,
      "▁بكل": 2919,
      "▁مات": 2920,
      "▁value": 2921,
      "▁تصنيف": 2922,
      "▁نقل": 2923,
      "CR": 2924,
      "ريط": 2925,
      "▁صد": 2926,
      "▁pass": 2927,
      "▁أق": 2928,
      "ration": 2929,
      "iness": 2930,
      "▁including": 2931,
      "طيع": 2932,
      "؟؟": 2933,
      "▁كاملة": 2934,
      "بكة": 2935,
      "atic": 2936,
      "جار": 2937,
      ". ": 2938,
      "amb": 2939,
      "gy": 2940,
      "▁الكس": 2941,
      "اعت": 2942,
      "ording": 2943,
      "▁كبيرة": 2944,
      "بحث": 2945,
      "▁الفريق": 2946,
      "left": 2947,
      "ides": 2948,
      "▁الوطني": 2949,
      "▁gener": 2950,
      "همة": 2951,
      "▁يخ": 2952,
      "▁الحد": 2953,
      "▁الرسم": 2954,
      "▁another": 2955,
      "▁منتدى": 2956,
      "طلاق": 2957,
      "راب": 2958,
      "▁صنع": 2959,
      "ior": 2960,
      "كام": 2961,
      "▁أنها": 2962,
      "داث": 2963,
      "▁الماضي": 2964,
      "▁منهم": 2965,
      "▁الحصول": 2966,
      "▁مجال": 2967,
      "gram": 2968,
      "ابعة": 2969,
      "atch": 2970,
      "ology": 2971,
      "▁الفلسط": 2972,
      "▁rest": 2973,
      "اصيل": 2974,
      "واج": 2975,
      "▁الخام": 2976,
      "▁الشباب": 2977,
      "IT": 2978,
      "▁التف": 2979,
      "خاص": 2980,
      "احونة": 2981,
      "سكر": 2982,
      "ush": 2983,
      "ivers": 2984,
      "ience": 2985,
      "▁الساعة": 2986,
      "يته": 2987,
      "▁الأرض": 2988,
      "idence": 2989,
      "ائف": 2990,
      "ability": 2991,
      "زال": 2992,
      "over": 2993,
      "que": 2994,
      "▁cap": 2995,
      "▁life": 2996,
      "▁سيا": 2997,
      "ention": 2998,
      "▁vis": 2999,
      "▁محم": 3000,
      "▁Ind": 3001,
      "ured": 3002,
      "▁رائ": 3003,
      "▁لمن": 3004,
      "قدر": 3005,
      "▁مدير": 3006,
      "ination": 3007,
      "▁نع": 3008,
      "▁كلام": 3009,
      "\".": 3010,
      "سية": 3011,
      "▁تل": 3012,
      "\":": 3013,
      "▁control": 3014,
      "بيا": 3015,
      "ST": 3016,
      "▁دم": 3017,
      "▁الأش": 3018,
      "▁المصري": 3019,
      "nd": 3020,
      "خور": 3021,
      "كمة": 3022,
      "نات": 3023,
      "▁الإنسان": 3024,
      "حية": 3025,
      "oss": 3026,
      "▁desc": 3027,
      "orn": 3028,
      "▁method": 3029,
      "▁يُ": 3030,
      "▁الشعر": 3031,
      "جان": 3032,
      "▁ردود": 3033,
      "▁شركات": 3034,
      "doc": 3035,
      "▁جي": 3036,
      "▁افضل": 3037,
      "▁To": 3038,
      "▁يأ": 3039,
      "▁مض": 3040,
      "سى": 3041,
      "▁inc": 3042,
      "▁وصف": 3043,
      "▁بار": 3044,
      "ِن": 3045,
      "▁Gr": 3046,
      "▁too": 3047,
      "▁bus": 3048,
      "▁سنوات": 3049,
      "▁مز": 3050,
      "افية": 3051,
      "NA": 3052,
      "جهزة": 3053,
      "▁Be": 3054,
      "▁name": 3055,
      "▁العديد": 3056,
      "vious": 3057,
      "rict": 3058,
      "urther": 3059,
      "▁بغ": 3060,
      "▁power": 3061,
      "▁المبار": 3062,
      "▁meas": 3063,
      "▁care": 3064,
      "▁elect": 3065,
      "▁الموقع": 3066,
      "▁مال": 3067,
      "▁bre": 3068,
      "▁منطقة": 3069,
      "▁States": 3070,
      "conom": 3071,
      "▁أج": 3072,
      "ots": 3073,
      "▁يعت": 3074,
      "▁وكل": 3075,
      "ploy": 3076,
      "bs": 3077,
      "▁لكم": 3078,
      "▁مرة": 3079,
      "lex": 3080,
      "ابي": 3081,
      "▁العل": 3082,
      "▁الولايات": 3083,
      "كسير": 3084,
      "▁patients": 3085,
      "▁ant": 3086,
      "ستان": 3087,
      "ials": 3088,
      "تنا": 3089,
      "▁الشع": 3090,
      "▁فك": 3091,
      "▁الحياة": 3092,
      "▁واس": 3093,
      "▁مرا": 3094,
      "▁نظ": 3095,
      "▁باست": 3096,
      "▁cells": 3097,
      ",''": 3098,
      "▁تستخدم": 3099,
      "لسلة": 3100,
      "chool": 3101,
      "قتل": 3102,
      "▁allow": 3103,
      "▁All": 3104,
      "ains": 3105,
      "ately": 3106,
      "ittle": 3107,
      "▁might": 3108,
      "▁?": 3109,
      "▁So": 3110,
      "لاً": 3111,
      "▁اللهم": 3112,
      "▁ضمن": 3113,
      "ئب": 3114,
      "▁الرج": 3115,
      "str": 3116,
      "▁الشرق": 3117,
      "▁اول": 3118,
      "▁عالية": 3119,
      "akes": 3120,
      "ضيع": 3121,
      "bb": 3122,
      "▁اق": 3123,
      "▁mil": 3124,
      "ثة": 3125,
      "▁next": 3126,
      "ؤال": 3127,
      "▁يك": 3128,
      "ونية": 3129,
      "اعر": 3130,
      "ves": 3131,
      "حمل": 3132,
      "▁سر": 3133,
      "ساب": 3134,
      "▁الدولية": 3135,
      "▁بخ": 3136,
      "▁signific": 3137,
      "اول": 3138,
      "اده": 3139,
      "▁leg": 3140,
      "▁حدثنا": 3141,
      "outh": 3142,
      "ينه": 3143,
      "duct": 3144,
      "▁es": 3145,
      "▁adv": 3146,
      "▁زي": 3147,
      "ray": 3148,
      "▁turn": 3149,
      "leg": 3150,
      "ym": 3151,
      "▁اللجنة": 3152,
      "son": 3153,
      "▁النظام": 3154,
      "▁type": 3155,
      "▁المجلس": 3156,
      "▁week": 3157,
      "▁commun": 3158,
      "▁عب": 3159,
      "▁سلم": 3160,
      "مه": 3161,
      "▁والب": 3162,
      "▁كتب": 3163,
      "osed": 3164,
      "▁زوج": 3165,
      "ister": 3166,
      "سر": 3167,
      "▁home": 3168,
      "▁وليس": 3169,
      "▁u": 3170,
      "$.": 3171,
      "itive": 3172,
      ",\\": 3173,
      "ذب": 3174,
      "▁following": 3175,
      "طب": 3176,
      "▁interest": 3177,
      "▁بان": 3178,
      "قرأ": 3179,
      "ئه": 3180,
      "ury": 3181,
      "▁منا": 3182,
      "ناه": 3183,
      "▁</": 3184,
      "▁أت": 3185,
      "▁bo": 3186,
      "▁وحد": 3187,
      "arge": 3188,
      "▁dev": 3189,
      "▁أكبر": 3190,
      "▁المغرب": 3191,
      "▁عليكم": 3192,
      "▁Pl": 3193,
      "$,": 3194,
      "▁proper": 3195,
      "خصص": 3196,
      "▁الاقتصاد": 3197,
      "ived": 3198,
      "att": 3199,
      "▁المنطقة": 3200,
      "ource": 3201,
      "▁الأد": 3202,
      "▁بالأ": 3203,
      "▁تغ": 3204,
      "▁left": 3205,
      "▁مرت": 3206,
      "▁وات": 3207,
      "▁rele": 3208,
      "جا": 3209,
      "▁الجديدة": 3210,
      "resent": 3211,
      "واد": 3212,
      "▁صاحب": 3213,
      "داع": 3214,
      "ething": 3215,
      "arm": 3216,
      "لوب": 3217,
      "باط": 3218,
      ".”": 3219,
      "error": 3220,
      "▁—": 3221,
      "▁لاعب": 3222,
      "▁list": 3223,
      "ining": 3224,
      "▁رحم": 3225,
      "▁صباح": 3226,
      "واجه": 3227,
      "▁سواء": 3228,
      "▁]": 3229,
      "AP": 3230,
      "ird": 3231,
      "▁put": 3232,
      "▁ابو": 3233,
      "كره": 3234,
      "ستر": 3235,
      "▁المال": 3236,
      "net": 3237,
      "▁سعيد": 3238,
      "▁المجتمع": 3239,
      "▁مشك": 3240,
      "▁إدارة": 3241,
      "▁وعد": 3242,
      "▁مي": 3243,
      "acter": 3244,
      "▁أمر": 3245,
      "▁مستوى": 3246,
      "▁rece": 3247,
      "▁التأ": 3248,
      "▁للإ": 3249,
      "▁ask": 3250,
      "bl": 3251,
      "▁أه": 3252,
      "غيير": 3253,
      "▁صوت": 3254,
      "▁beh": 3255,
      "جلي": 3256,
      "work": 3257,
      "ورا": 3258,
      "قف": 3259,
      "▁within": 3260,
      "ised": 3261,
      "▁حما": 3262,
      "▁الجه": 3263,
      "▁الأع": 3264,
      "ُم": 3265,
      "▁الدم": 3266,
      "وجود": 3267,
      "▁شاء": 3268,
      "▁got": 3269,
      "IC": 3270,
      "▁قول": 3271,
      "غان": 3272,
      "▁حيات": 3273,
      "▁treat": 3274,
      "▁place": 3275,
      "▁sk": 3276,
      "▁فهو": 3277,
      "شد": 3278,
      "تز": 3279,
      "▁few": 3280,
      "ries": 3281,
      "علان": 3282,
      "▁results": 3283,
      "▁expect": 3284,
      "ذهب": 3285,
      "صب": 3286,
      "▁القد": 3287,
      "ورات": 3288,
      "▁Bl": 3289,
      "ality": 3290,
      "▁لد": 3291,
      "▁الحج": 3292,
      "fer": 3293,
      "cul": 3294,
      "ريه": 3295,
      "▁ident": 3296,
      "▁واج": 3297,
      "▁never": 3298,
      "cer": 3299,
      "▁mov": 3300,
      "ways": 3301,
      "افي": 3302,
      "▁خارج": 3303,
      "▁top": 3304,
      "▁grow": 3305,
      "▁بناء": 3306,
      "▁للس": 3307,
      "▁للد": 3308,
      "▁وتح": 3309,
      "].": 3310,
      "▁عليهم": 3311,
      "▁best": 3312,
      "▁million": 3313,
      "▁المق": 3314,
      "▁hy": 3315,
      "▁lim": 3316,
      "▁تنا": 3317,
      "ويات": 3318,
      "▁قدر": 3319,
      "▁فعل": 3320,
      "▁عبدالله": 3321,
      "ml": 3322,
      "▁current": 3323,
      "ضية": 3324,
      "▁bro": 3325,
      "▁وصل": 3326,
      "▁جامعة": 3327,
      "▁tem": 3328,
      "▁spe": 3329,
      "',": 3330,
      "▁المعلومات": 3331,
      "▁happ": 3332,
      "وضع": 3333,
      "▁الثانية": 3334,
      "▁ريال": 3335,
      "ائج": 3336,
      "▁ولو": 3337,
      "thing": 3338,
      "▁occ": 3339,
      "da": 3340,
      "داً": 3341,
      "▁طاحونة": 3342,
      "ott": 3343,
      "ريح": 3344,
      "▁قلب": 3345,
      "جع": 3346,
      "▁السن": 3347,
      "▁bas": 3348,
      "▁الإلكتر": 3349,
      "▁والث": 3350,
      "▁techn": 3351,
      "▁موضوع": 3352,
      "▁كور": 3353,
      "▁لدى": 3354,
      "تيار": 3355,
      "ضمن": 3356,
      "ably": 3357,
      "▁خاص": 3358,
      "▁خل": 3359,
      "▁vari": 3360,
      "for": 3361,
      "▁opp": 3362,
      "طاء": 3363,
      "عيد": 3364,
      "▁Category": 3365,
      "طلق": 3366,
      "▁Sc": 3367,
      "▁pop": 3368,
      "ريك": 3369,
      "ently": 3370,
      "▁موس": 3371,
      "▁عض": 3372,
      "▁حر": 3373,
      "▁ele": 3374,
      "ats": 3375,
      "ety": 3376,
      "▁ارتفاع": 3377,
      "by": 3378,
      "▁little": 3379,
      "▁come": 3380,
      "حص": 3381,
      "▁condition": 3382,
      "▁المف": 3383,
      "ديه": 3384,
      "▁Sp": 3385,
      "ظف": 3386,
      "▁البط": 3387,
      "▁mult": 3388,
      "اسية": 3389,
      "▁حسن": 3390,
      "▁سوف": 3391,
      "شل": 3392,
      "لامة": 3393,
      "ference": 3394,
      "▁فوق": 3395,
      "AC": 3396,
      "▁عز": 3397,
      "▁seem": 3398,
      "▁However": 3399,
      "فير": 3400,
      "▁الشركات": 3401,
      "▁ويع": 3402,
      "▁وكالة": 3403,
      "▁حساب": 3404,
      "gen": 3405,
      "▁الرحمن": 3406,
      "زن": 3407,
      "ندا": 3408,
      "ضان": 3409,
      "▁لص": 3410,
      "▁رجل": 3411,
      "سطة": 3412,
      "تح": 3413,
      "▁شع": 3414,
      "منى": 3415,
      "▁significant": 3416,
      "▁prof": 3417,
      "ED": 3418,
      "▁تعرف": 3419,
      "▁السب": 3420,
      "▁حاج": 3421,
      "نتر": 3422,
      "arent": 3423,
      "▁sing": 3424,
      "▁الوطنية": 3425,
      "ysis": 3426,
      "▁less": 3427,
      "ery": 3428,
      "▁الخلي": 3429,
      "▁طريقة": 3430,
      "▁حب": 3431,
      "ياً": 3432,
      "▁حقوق": 3433,
      "▁والخ": 3434,
      "اتي": 3435,
      "IS": 3436,
      "▁المرأة": 3437,
      "▁ير": 3438,
      "▁قب": 3439,
      "▁That": 3440,
      "▁When": 3441,
      "سباب": 3442,
      "lish": 3443,
      "يده": 3444,
      "▁determ": 3445,
      "▁addition": 3446,
      "نسي": 3447,
      "eta": 3448,
      "▁something": 3449,
      "▁خالد": 3450,
      "▁نتي": 3451,
      "▁obs": 3452,
      "▁الكريم": 3453,
      "ajor": 3454,
      "▁الصنا": 3455,
      "▁دين": 3456,
      "▁اكت": 3457,
      "فتح": 3458,
      "▁حكم": 3459,
      "▁وآ": 3460,
      "▁المحت": 3461,
      "ينات": 3462,
      "دت": 3463,
      "َي": 3464,
      "▁sit": 3465,
      "▁redu": 3466,
      "▁صالح": 3467,
      "▁فن": 3468,
      "ريل": 3469,
      "▁belie": 3470,
      "▁country": 3471,
      "▁تصميم": 3472,
      "▁mean": 3473,
      "▁really": 3474,
      "abel": 3475,
      "▁ماك": 3476,
      "▁سلسلة": 3477,
      "اتف": 3478,
      "صحاب": 3479,
      "▁الحلقة": 3480,
      "▁ينت": 3481,
      "سام": 3482,
      "طال": 3483,
      "▁تطبيق": 3484,
      "ript": 3485,
      "▁claim": 3486,
      "▁won": 3487,
      "▁عنها": 3488,
      "▁struct": 3489,
      "not": 3490,
      "اركات": 3491,
      "▁رسم": 3492,
      "here": 3493,
      "iving": 3494,
      "▁القرآن": 3495,
      "▁ـ": 3496,
      "▁التاريخ": 3497,
      "▁الأمير": 3498,
      "▁الحب": 3499,
      "▁يل": 3500,
      "▁الاول": 3501,
      "اخ": 3502,
      "It": 3503,
      "▁بواسطة": 3504,
      "▁pur": 3505,
      "▁لبنان": 3506,
      "▁chang": 3507,
      "ither": 3508,
      "ead": 3509,
      "▁organ": 3510,
      "ertain": 3511,
      "▁الإن": 3512,
      "▁·": 3513,
      "▁model": 3514,
      "راتيج": 3515,
      "لسل": 3516,
      "نقلة": 3517,
      "▁والج": 3518,
      "▁عاد": 3519,
      "!\"": 3520,
      "نب": 3521,
      "ليق": 3522,
      "▁السنة": 3523,
      "eb": 3524,
      "يزة": 3525,
      "▁اخر": 3526,
      "▁نشر": 3527,
      "▁health": 3528,
      "▁told": 3529,
      "▁Rep": 3530,
      "ونس": 3531,
      "وتر": 3532,
      "ضور": 3533,
      "رحلة": 3534,
      "ends": 3535,
      "▁السابق": 3536,
      "inc": 3537,
      "َّ": 3538,
      "▁hig": 3539,
      "ارا": 3540,
      "خابات": 3541,
      "▁الحكم": 3542,
      "stand": 3543,
      "▁ve": 3544,
      "ID": 3545,
      "▁المواطن": 3546,
      "▁Pr": 3547,
      "▁low": 3548,
      "pped": 3549,
      "ذية": 3550,
      "ari": 3551,
      "▁human": 3552,
      "▁وأضاف": 3553,
      "ريبا": 3554,
      "▁meet": 3555,
      "▁respect": 3556,
      "▁writ": 3557,
      "▁old": 3558,
      "قية": 3559,
      "هورية": 3560,
      "▁تقديم": 3561,
      "ended": 3562,
      "▁•": 3563,
      "هير": 3564,
      "▁بالق": 3565,
      "▁عقد": 3566,
      "الجة": 3567,
      "▁days": 3568,
      "▁given": 3569,
      "كلفة": 3570,
      "▁وبعد": 3571,
      "▁big": 3572,
      "▁المالية": 3573,
      "▁السل": 3574,
      "ump": 3575,
      "شك": 3576,
      "▁أسعار": 3577,
      "▁العالمية": 3578,
      "▁prom": 3579,
      "eter": 3580,
      "ling": 3581,
      "▁الصخور": 3582,
      "▁fore": 3583,
      "▁Euro": 3584,
      "▁الداخل": 3585,
      "▁polit": 3586,
      "▁ساعة": 3587,
      "▁men": 3588,
      "ilar": 3589,
      "▁product": 3590,
      "▁إذ": 3591,
      "وفير": 3592,
      "▁الترك": 3593,
      "▁يه": 3594,
      "▁القص": 3595,
      "ريس": 3596,
      "org": 3597,
      "(-": 3598,
      "veral": 3599,
      "ung": 3600,
      "ify": 3601,
      "وبية": 3602,
      "▁dra": 3603,
      "▁القدم": 3604,
      "▁نوف": 3605,
      "عين": 3606,
      "▁جما": 3607,
      "ule": 3608,
      "▁لأنه": 3609,
      "▁يناير": 3610,
      "▁صحافه": 3611,
      "▁العد": 3612,
      "▁صحيفة": 3613,
      "▁رؤ": 3614,
      "رشيف": 3615,
      "▁وض": 3616,
      "orth": 3617,
      "une": 3618,
      "َم": 3619,
      "احن": 3620,
      "واق": 3621,
      "rop": 3622,
      "لحة": 3623,
      "▁called": 3624,
      "▁Go": 3625,
      "اتها": 3626,
      "▁important": 3627,
      "pha": 3628,
      "▁محطة": 3629,
      "▁يكن": 3630,
      "):": 3631,
      "روج": 3632,
      "عداد": 3633,
      "اسة": 3634,
      "▁econom": 3635,
      "ميس": 3636,
      "Fig": 3637,
      "▁محت": 3638,
      "ential": 3639,
      "قطع": 3640,
      "▁وكذلك": 3641,
      "▁near": 3642,
      "▁الهي": 3643,
      "▁الاب": 3644,
      "أت": 3645,
      "لين": 3646,
      "▁view": 3647,
      "تمام": 3648,
      "فيه": 3649,
      "▁example": 3650,
      "مبر": 3651,
      "زية": 3652,
      "▁كيفية": 3653,
      "▁Co": 3654,
      "ef": 3655,
      "▁Col": 3656,
      "rel": 3657,
      "▁better": 3658,
      "▁وغ": 3659,
      "▁Or": 3660,
      "reen": 3661,
      "سمبر": 3662,
      "قرار": 3663,
      "new": 3664,
      "▁ني": 3665,
      "▁سيت": 3666,
      "▁light": 3667,
      "▁ممكن": 3668,
      "▁particular": 3669,
      "oor": 3670,
      "ien": 3671,
      "iff": 3672,
      "▁By": 3673,
      "▁Cal": 3674,
      "كة": 3675,
      "ادم": 3676,
      "▁قطع": 3677,
      "▁مار": 3678,
      "▁record": 3679,
      "▁المدينة": 3680,
      "▁الجيش": 3681,
      "▁least": 3682,
      "▁intern": 3683,
      "sec": 3684,
      "▁السيد": 3685,
      "بو": 3686,
      "▁لذلك": 3687,
      "▁program": 3688,
      "وسف": 3689,
      "ccess": 3690,
      "uck": 3691,
      "▁لات": 3692,
      "▁الرجل": 3693,
      "▁المسلمين": 3694,
      "▁كال": 3695,
      "ending": 3696,
      "▁pot": 3697,
      "▁اقت": 3698,
      "جوم": 3699,
      "راط": 3700,
      "ET": 3701,
      "▁Res": 3702,
      "جاه": 3703,
      "EC": 3704,
      "▁الاعت": 3705,
      "▁بشأن": 3706,
      "▁النظر": 3707,
      "curity": 3708,
      "ple": 3709,
      "▁based": 3710,
      "▁hard": 3711,
      "ليا": 3712,
      "▁بالح": 3713,
      "▁قطر": 3714,
      "ribut": 3715,
      "▁آل": 3716,
      "▁أعمال": 3717,
      "ember": 3718,
      "vert": 3719,
      "▁لقد": 3720,
      "▁رح": 3721,
      "ظة": 3722,
      "غيل": 3723,
      "▁معلومات": 3724,
      "عو": 3725,
      "▁المك": 3726,
      "كنولوج": 3727,
      "▁تؤ": 3728,
      "يون": 3729,
      "▁plan": 3730,
      "زه": 3731,
      "▁Mar": 3732,
      "▁بلغ": 3733,
      "au": 3734,
      "▁إم": 3735,
      "arget": 3736,
      "▁الخير": 3737,
      "▁شبكة": 3738,
      "por": 3739,
      "▁fre": 3740,
      "خدمة": 3741,
      "شرين": 3742,
      "▁Mon": 3743,
      "▁whether": 3744,
      "▁اجتما": 3745,
      "▁change": 3746,
      "▁إنتاج": 3747,
      "▁الكتاب": 3748,
      "▁eas": 3749,
      "▁بالس": 3750,
      "زين": 3751,
      "acy": 3752,
      "انى": 3753,
      "▁الهلال": 3754,
      "ackage": 3755,
      "▁build": 3756,
      "idd": 3757,
      "▁للق": 3758,
      "▁الرئيسية": 3759,
      "▁اخبار": 3760,
      "▁صغير": 3761,
      "ivid": 3762,
      "▁May": 3763,
      "ison": 3764,
      "▁سليم": 3765,
      "▁قلت": 3766,
      "▁حكوم": 3767,
      "▁درج": 3768,
      "أل": 3769,
      "▁قائمة": 3770,
      "face": 3771,
      "▁vi": 3772,
      "▁والك": 3773,
      "ament": 3774,
      ".''": 3775,
      "▁دولة": 3776,
      "▁fail": 3777,
      "فسير": 3778,
      "▁النها": 3779,
      "aining": 3780,
      "▁أفريقيا": 3781,
      "▁قانون": 3782,
      "▁hist": 3783,
      "يانة": 3784,
      "▁large": 3785,
      "َر": 3786,
      "▁arg": 3787,
      "▁prob": 3788,
      "▁clear": 3789,
      "ait": 3790,
      "راع": 3791,
      "▁business": 3792,
      "apt": 3793,
      "▁حص": 3794,
      "mathcal": 3795,
      "▁team": 3796,
      "▁صغيرة": 3797,
      "▁local": 3798,
      "▁الجزائر": 3799,
      "▁invol": 3800,
      "سسة": 3801,
      "▁خدمة": 3802,
      "مع": 3803,
      "ريات": 3804,
      "▁family": 3805,
      "▁sw": 3806,
      "▁تحقيق": 3807,
      "ــــ": 3808,
      "▁بب": 3809,
      "▁mot": 3810,
      "▁السوق": 3811,
      "شن": 3812,
      "▁cal": 3813,
      "ئات": 3814,
      "▁major": 3815,
      "▁water": 3816,
      "▁ris": 3817,
      "كار": 3818,
      "▁ann": 3819,
      "ope": 3820,
      "▁indic": 3821,
      "▁wr": 3822,
      "▁البلاد": 3823,
      "▁والذي": 3824,
      "شق": 3825,
      "▁free": 3826,
      "▁سل": 3827,
      "شى": 3828,
      "▁says": 3829,
      "▁مساء": 3830,
      "▁until": 3831,
      "cret": 3832,
      "▁sugg": 3833,
      "(\"": 3834,
      "رفع": 3835,
      "▁بالك": 3836,
      "▁انها": 3837,
      "▁suggest": 3838,
      "▁associ": 3839,
      "reg": 3840,
      "اسي": 3841,
      ")\\": 3842,
      "▁الوزراء": 3843,
      "▁اما": 3844,
      "▁الحي": 3845,
      "▁رأس": 3846,
      "▁وبين": 3847,
      "▁;": 3848,
      "▁den": 3849,
      "▁give": 3850,
      "▁واب": 3851,
      "سسات": 3852,
      "▁move": 3853,
      "▁وتم": 3854,
      "▁السود": 3855,
      "ترك": 3856,
      "اكل": 3857,
      "▁kill": 3858,
      "ued": 3859,
      "▁Te": 3860,
      "▁يعرف": 3861,
      "▁معه": 3862,
      "}(": 3863,
      "▁يقوم": 3864,
      "▁ide": 3865,
      "▁consider": 3866,
      "ohn": 3867,
      "▁برس": 3868,
      "▁بالله": 3869,
      "رع": 3870,
      "▁الْ": 3871,
      "▁الخارجية": 3872,
      "وضح": 3873,
      "ours": 3874,
      "ناة": 3875,
      "▁things": 3876,
      "▁كافة": 3877,
      "▁الملا": 3878,
      "▁إبراهيم": 3879,
      "▁جل": 3880,
      "▁possible": 3881,
      "▁إنه": 3882,
      "▁آلات": 3883,
      "▁صحيح": 3884,
      "▁Min": 3885,
      "alf": 3886,
      "▁ملك": 3887,
      "▁typ": 3888,
      "▁الآخر": 3889,
      "iod": 3890,
      "سيط": 3891,
      "▁main": 3892,
      "غب": 3893,
      "hib": 3894,
      "يسي": 3895,
      "iron": 3896,
      "ij": 3897,
      "▁المل": 3898,
      "▁Eng": 3899,
      "▁جعل": 3900,
      "تع": 3901,
      "▁impro": 3902,
      "▁الدرا": 3903,
      "▁للب": 3904,
      "▁الإمارات": 3905,
      "▁represent": 3906,
      "▁السلط": 3907,
      "aps": 3908,
      "ows": 3909,
      "▁later": 3910,
      "▁women": 3911,
      "بيعي": 3912,
      "قوله": 3913,
      "تمد": 3914,
      "▁App": 3915,
      "▁الفي": 3916,
      "▁الأعمال": 3917,
      "▁pay": 3918,
      "صابة": 3919,
      "AM": 3920,
      "▁keep": 3921,
      "▁سير": 3922,
      "اصمة": 3923,
      "▁الاه": 3924,
      "▁الأمريكية": 3925,
      "حقق": 3926,
      "ولات": 3927,
      "▁TH": 3928,
      "roll": 3929,
      "oney": 3930,
      "▁شكرا": 3931,
      "▁القائ": 3932,
      "rap": 3933,
      "ga": 3934,
      "def": 3935,
      "▁tot": 3936,
      "▁رمضان": 3937,
      "▁نعم": 3938,
      "ثمار": 3939,
      "▁باسم": 3940,
      "هدف": 3941,
      "▁نوفمبر": 3942,
      "▁الإعلام": 3943,
      "نسية": 3944,
      "▁fac": 3945,
      "▁لاب": 3946,
      "ype": 3947,
      "\\[": 3948,
      "▁company": 3949,
      "aring": 3950,
      "▁تعدين": 3951,
      "▁مكت": 3952,
      "XT": 3953,
      "▁sum": 3954,
      "زع": 3955,
      "▁ديسمبر": 3956,
      "▁السر": 3957,
      "ged": 3958,
      "arn": 3959,
      "▁جانب": 3960,
      "▁ذا": 3961,
      "▁محا": 3962,
      "ered": 3963,
      "▁بول": 3964,
      "▁فتح": 3965,
      "ians": 3966,
      "اث": 3967,
      "حين": 3968,
      "▁كث": 3969,
      "▁didn": 3970,
      "▁المواد": 3971,
      "▁يعمل": 3972,
      "▁بو": 3973,
      "▁أنت": 3974,
      "▁الاسلام": 3975,
      "▁للف": 3976,
      "▁الأمم": 3977,
      "my": 3978,
      "▁خدمات": 3979,
      "▁تنزيل": 3980,
      "▁عدة": 3981,
      "▁position": 3982,
      "▁children": 3983,
      "▁تو": 3984,
      "mber": 3985,
      "▁lik": 3986,
      "▁Af": 3987,
      "▁several": 3988,
      "▁الصلاة": 3989,
      "▁ساب": 3990,
      "▁applic": 3991,
      "▁describ": 3992,
      "ركه": 3993,
      "name": 3994,
      "US": 3995,
      "كى": 3996,
      "ances": 3997,
      "خلص": 3998,
      "]\\].": 3999,
      "AD": 4000,
      "▁opt": 4001,
      "UR": 4002,
      "اعه": 4003,
      "▁ثلاثة": 4004,
      "ؤلاء": 4005,
      "نترنت": 4006,
      "▁conne": 4007,
      "▁أيام": 4008,
      "نائية": 4009,
      "▁الأف": 4010,
      "ING": 4011,
      "▁يمكنك": 4012,
      "ماد": 4013,
      "aut": 4014,
      "جراءات": 4015,
      "▁game": 4016,
      "▁cost": 4017,
      "▁rese": 4018,
      "▁الأخرى": 4019,
      "▁problem": 4020,
      "▁اللاعب": 4021,
      "ليف": 4022,
      "▁للن": 4023,
      "ream": 4024,
      "____": 4025,
      "▁معا": 4026,
      "▁عنا": 4027,
      "حوق": 4028,
      "olution": 4029,
      "ley": 4030,
      "▁قرار": 4031,
      "▁question": 4032,
      "ification": 4033,
      "▁far": 4034,
      "▁air": 4035,
      "درسة": 4036,
      "OM": 4037,
      "ونيو": 4038,
      "▁فان": 4039,
      "▁تعلم": 4040,
      "▁دعم": 4041,
      "▁الال": 4042,
      "▁الدنيا": 4043,
      "▁يوجد": 4044,
      "ready": 4045,
      "▁object": 4046,
      "▁رضي": 4047,
      "▁side": 4048,
      "▁American": 4049,
      "ومي": 4050,
      "▁net": 4051,
      "▁press": 4052,
      "aken": 4053,
      "قرر": 4054,
      "▁النسخة": 4055,
      "af": 4056,
      "EL": 4057,
      "▁وسط": 4058,
      "ocial": 4059,
      "You": 4060,
      "الله": 4061,
      "▁Europe": 4062,
      "▁school": 4063,
      "▁away": 4064,
      "▁تأثير": 4065,
      "▁اللب": 4066,
      "▁بكر": 4067,
      "▁الدفاع": 4068,
      "▁mus": 4069,
      "▁فلسط": 4070,
      "▁الجميع": 4071,
      "ثنين": 4072,
      "▁عرف": 4073,
      "▁always": 4074,
      "طلع": 4075,
      "ware": 4076,
      "alpha": 4077,
      "▁وهم": 4078,
      "▁تعت": 4079,
      "▁further": 4080,
      "روب": 4081,
      "bf": 4082,
      "▁كذلك": 4083,
      "sy": 4084,
      "▁بلد": 4085,
      "▁book": 4086,
      "▁vol": 4087,
      "▁thought": 4088,
      "كتوبر": 4089,
      "ەن": 4090,
      "دون": 4091,
      "▁وانت": 4092,
      "وام": 4093,
      "▁common": 4094,
      "▁يسم": 4095,
      "يمان": 4096,
      "عام": 4097,
      "▁feel": 4098,
      "▁الجمعة": 4099,
      "▁above": 4100,
      "▁بني": 4101,
      "▁known": 4102,
      "▁يغ": 4103,
      "▁having": 4104,
      "ored": 4105,
      "▁إل": 4106,
      "---": 4107,
      "افحة": 4108,
      "▁الشه": 4109,
      "ِّ": 4110,
      "▁$$\\": 4111,
      "▁رفع": 4112,
      "▁تنفيذ": 4113,
      "ailable": 4114,
      "ength": 4115,
      "▁observ": 4116,
      "▁بف": 4117,
      "▁ليست": 4118,
      "▁dr": 4119,
      "▁que": 4120,
      "▁China": 4121,
      "كيد": 4122,
      "▁تقوم": 4123,
      "▁المعدات": 4124,
      "افر": 4125,
      "▁الوسط": 4126,
      "▁مره": 4127,
      "We": 4128,
      "▁أمس": 4129,
      "▁manag": 4130,
      "▁كلمة": 4131,
      "▁لج": 4132,
      "▁win": 4133,
      "oper": 4134,
      "▁sent": 4135,
      "▁among": 4136,
      "itor": 4137,
      "▁شه": 4138,
      "▁الأه": 4139,
      "▁With": 4140,
      "هاد": 4141,
      "وتي": 4142,
      "ched": 4143,
      "ards": 4144,
      "▁تنظيف": 4145,
      "▁خلف": 4146,
      "▁أنواع": 4147,
      "▁*/": 4148,
      "▁York": 4149,
      "▁author": 4150,
      "rem": 4151,
      "▁ملف": 4152,
      "ales": 4153,
      "▁المصرية": 4154,
      "▁النفط": 4155,
      "▁One": 4156,
      "go": 4157,
      "▁الجما": 4158,
      "epend": 4159,
      "▁امر": 4160,
      "▁ثق": 4161,
      "▁فيديو": 4162,
      "▁وكانت": 4163,
      "▁”": 4164,
      "▁البحرين": 4165,
      "▁لف": 4166,
      "▁vers": 4167,
      "▁Pres": 4168,
      "▁صورة": 4169,
      "ذة": 4170,
      "يتها": 4171,
      "▁due": 4172,
      "راجع": 4173,
      "enn": 4174,
      "▁القاهرة": 4175,
      "▁ضع": 4176,
      "وها": 4177,
      "اشة": 4178,
      "▁تعمل": 4179,
      "▁لتح": 4180,
      "▁تتم": 4181,
      "▁عشان": 4182,
      "mp": 4183,
      "▁der": 4184,
      "▁{#": 4185,
      "ظائف": 4186,
      "plic": 4187,
      "ples": 4188,
      "▁اليه": 4189,
      "▁ده": 4190,
      "unt": 4191,
      "اسم": 4192,
      "▁لجنة": 4193,
      "▁الكهرب": 4194,
      "▁analysis": 4195,
      "▁سبح": 4196,
      "يارات": 4197,
      "play": 4198,
      "▁reported": 4199,
      "ho": 4200,
      "iversity": 4201,
      "▁التعاون": 4202,
      "ديق": 4203,
      "▁general": 4204,
      "▁These": 4205,
      "▁عائ": 4206,
      "ney": 4207,
      "ories": 4208,
      "▁لهذا": 4209,
      "▁init": 4210,
      "▁نادي": 4211,
      "▁رغم": 4212,
      "قليم": 4213,
      "▁دخل": 4214,
      "================": 4215,
      "ask": 4216,
      "▁يول": 4217,
      "▁came": 4218,
      "▁Coun": 4219,
      "▁بنت": 4220,
      "▁الدوري": 4221,
      "▁والاست": 4222,
      "▁file": 4223,
      "▁circ": 4224,
      "▁دبي": 4225,
      "seg": 4226,
      "▁جزء": 4227,
      "▁الرمل": 4228,
      "لمة": 4229,
      "▁كي": 4230,
      "▁hold": 4231,
      "though": 4232,
      "▁بنا": 4233,
      "▁reason": 4234,
      "عمل": 4235,
      "ault": 4236,
      "▁أل": 4237,
      "▁evidence": 4238,
      "▁دائما": 4239,
      "orld": 4240,
      "▁rad": 4241,
      "ذج": 4242,
      "▁المصن": 4243,
      "▁الطب": 4244,
      "▁بالف": 4245,
      "اند": 4246,
      "تمبر": 4247,
      "▁شكل": 4248,
      ",”": 4249,
      "▁الاح": 4250,
      "اجر": 4251,
      "▁self": 4252,
      "▁الرقم": 4253,
      "▁كامل": 4254,
      "▁النفس": 4255,
      "OS": 4256,
      "▁نصف": 4257,
      "ارف": 4258,
      "▁حجم": 4259,
      "▁John": 4260,
      "▁full": 4261,
      "ctor": 4262,
      "▁نهاية": 4263,
      "▁رياض": 4264,
      "▁already": 4265,
      "sel": 4266,
      "يبة": 4267,
      "ؤون": 4268,
      "▁الصفحة": 4269,
      "▁agre": 4270,
      "▁mater": 4271,
      "▁project": 4272,
      "▁البشر": 4273,
      "rist": 4274,
      "▁لاست": 4275,
      "▁تقرير": 4276,
      "▁fri": 4277,
      "osp": 4278,
      "onse": 4279,
      "▁State": 4280,
      "والي": 4281,
      "▁وانا": 4282,
      "▁obt": 4283,
      "▁بير": 4284,
      "▁previous": 4285,
      "▁البيت": 4286,
      "▁اللغة": 4287,
      "▁Gen": 4288,
      "ift": 4289,
      "▁short": 4290,
      "che": 4291,
      "▁Supp": 4292,
      "▁تكسير": 4293,
      "FP": 4294,
      "▁فإ": 4295,
      "▁الكبير": 4296,
      "▁Mr": 4297,
      "▁النص": 4298,
      "mm": 4299,
      "الا": 4300,
      "▁provide": 4301,
      "▁الإسلامية": 4302,
      "خطوط": 4303,
      "▁market": 4304,
      "▁إد": 4305,
      "فيات": 4306,
      "▁بالش": 4307,
      "IL": 4308,
      "▁القب": 4309,
      "▁العزيز": 4310,
      "عيش": 4311,
      "▁المث": 4312,
      "▁strong": 4313,
      "عزيز": 4314,
      "opy": 4315,
      "▁jud": 4316,
      "comm": 4317,
      "قدمة": 4318,
      "▁area": 4319,
      "▁individ": 4320,
      "▁الحرب": 4321,
      "رجع": 4322,
      "▁الخبر": 4323,
      "▁سوق": 4324,
      "ئا": 4325,
      "▁div": 4326,
      "▁سعد": 4327,
      "كذا": 4328,
      "aper": 4329,
      "▁الرائ": 4330,
      "side": 4331,
      "▁الصحة": 4332,
      "action": 4333,
      "▁الداخلية": 4334,
      "▁After": 4335,
      "▁بهذا": 4336,
      "صلاح": 4337,
      "▁employ": 4338,
      "▁times": 4339,
      "▁الرو": 4340,
      "itted": 4341,
      "▁الذى": 4342,
      "ourse": 4343,
      "▁الدع": 4344,
      "غر": 4345,
      "▁field": 4346,
      "▁similar": 4347,
      "الس": 4348,
      "▁الطريق": 4349,
      "هن": 4350,
      "▁five": 4351,
      "▁الأص": 4352,
      "▁شراء": 4353,
      "▁المجم": 4354,
      "▁أور": 4355,
      "▁الخدمات": 4356,
      "ريكا": 4357,
      "▁development": 4358,
      "▁كورونا": 4359,
      "▁neg": 4360,
      "▁ويم": 4361,
      "اليا": 4362,
      "^{\\": 4363,
      "▁زيادة": 4364,
      "▁والط": 4365,
      "▁الحسن": 4366,
      "▁took": 4367,
      "▁crit": 4368,
      "▁اني": 4369,
      "▁الجام": 4370,
      "▁period": 4371,
      "▁التواصل": 4372,
      "rain": 4373,
      "ones": 4374,
      "ارق": 4375,
      "▁الأرد": 4376,
      "ENG": 4377,
      "▁bi": 4378,
      "▁وتن": 4379,
      "▁comb": 4380,
      "▁مسؤول": 4381,
      "▁tell": 4382,
      "هُ": 4383,
      "▁الأور": 4384,
      "▁تنت": 4385,
      "جرد": 4386,
      "▁شاهد": 4387,
      "▁attack": 4388,
      "add": 4389,
      "▁priv": 4390,
      "▁خلي": 4391,
      "▁character": 4392,
      "▁مباراة": 4393,
      "ريع": 4394,
      "▁سوريا": 4395,
      "▁mag": 4396,
      "عاية": 4397,
      "شرات": 4398,
      "yle": 4399,
      "▁along": 4400,
      "▁coun": 4401,
      "▁تقول": 4402,
      "▁Car": 4403,
      "▁بالنسبة": 4404,
      "ering": 4405,
      "ressed": 4406,
      "▁بيان": 4407,
      "▁path": 4408,
      "ands": 4409,
      "▁Court": 4410,
      "uf": 4411,
      "▁الخميس": 4412,
      "الأرشيف": 4413,
      "lished": 4414,
      "▁الجيري": 4415,
      ")،": 4416,
      "▁Intern": 4417,
      "▁القرن": 4418,
      "dd": 4419,
      "ورت": 4420,
      "▁{\\": 4421,
      "▁توا": 4422,
      "بيت": 4423,
      "icro": 4424,
      "دن": 4425,
      "طلا": 4426,
      "▁اشت": 4427,
      "▁mar": 4428,
      "▁تا": 4429,
      "طان": 4430,
      "▁السياسية": 4431,
      "▁سا": 4432,
      "▁السبب": 4433,
      "حمر": 4434,
      "OL": 4435,
      "▁بمن": 4436,
      "▁وير": 4437,
      "▁مقابل": 4438,
      "ological": 4439,
      "▁investig": 4440,
      "فو": 4441,
      "▁جهاز": 4442,
      "▁لط": 4443,
      "▁تصنيع": 4444,
      "هار": 4445,
      "ormal": 4446,
      "▁صناعة": 4447,
      "سكرية": 4448,
      "▁size": 4449,
      "▁أكتوبر": 4450,
      "▁able": 4451,
      "▁مارس": 4452,
      "▁سيد": 4453,
      "دائ": 4454,
      "▁past": 4455,
      "▁~": 4456,
      "ibility": 4457,
      "ators": 4458,
      "▁…": 4459,
      "▁eng": 4460,
      "rug": 4461,
      "ندي": 4462,
      "ضايا": 4463,
      "▁شعب": 4464,
      "▁يط": 4465,
      "ler": 4466,
      "كنولوجيا": 4467,
      "▁الفترة": 4468,
      "ief": 4469,
      "عرض": 4470,
      "▁More": 4471,
      "▁early": 4472,
      "▁النار": 4473,
      "▁En": 4474,
      "زوج": 4475,
      "uff": 4476,
      "▁else": 4477,
      "▁واع": 4478,
      "▁||": 4479,
      "▁المطر": 4480,
      "الج": 4481,
      "▁أثناء": 4482,
      "▁المياه": 4483,
      "ياد": 4484,
      "▁lot": 4485,
      "▁ألم": 4486,
      "▁انك": 4487,
      "▁محد": 4488,
      "▁single": 4489,
      "ابر": 4490,
      "▁available": 4491,
      "▁ener": 4492,
      "▁night": 4493,
      "▁art": 4494,
      "▁احمد": 4495,
      "▁مُ": 4496,
      "year": 4497,
      "َة": 4498,
      "bar": 4499,
      "▁قوات": 4500,
      "كيل": 4501,
      "ندوق": 4502,
      "▁My": 4503,
      "▁Ne": 4504,
      "TEXT": 4505,
      "na": 4506,
      "▁infl": 4507,
      "الغ": 4508,
      "▁treatment": 4509,
      "▁النساء": 4510,
      "▁بث": 4511,
      "▁علينا": 4512,
      "ograph": 4513,
      "لاك": 4514,
      "راح": 4515,
      "elta": 4516,
      "▁discuss": 4517,
      "قتصادي": 4518,
      "▁الكلام": 4519,
      "َب": 4520,
      "ising": 4521,
      "back": 4522,
      "bo": 4523,
      "▁القلب": 4524,
      "uation": 4525,
      "atory": 4526,
      "▁الإنترنت": 4527,
      "▁conc": 4528,
      "▁milit": 4529,
      "ried": 4530,
      "▁قتل": 4531,
      "▁يوسف": 4532,
      "lection": 4533,
      "▁الرب": 4534,
      "();": 4535,
      "rodu": 4536,
      "▁أخبار": 4537,
      "شفى": 4538,
      "▁members": 4539,
      "▁المشاركة": 4540,
      "▁الماء": 4541,
      "▁بات": 4542,
      "▁action": 4543,
      "ION": 4544,
      "icy": 4545,
      "▁key": 4546,
      "▁بذلك": 4547,
      "▁أمن": 4548,
      "itle": 4549,
      "▁والتع": 4550,
      "▁orig": 4551,
      "used": 4552,
      "جرة": 4553,
      "▁individual": 4554,
      "aug": 4555,
      "ony": 4556,
      "▁camp": 4557,
      "aster": 4558,
      "▁though": 4559,
      "▁جري": 4560,
      "ادث": 4561,
      "▁الصور": 4562,
      "rt": 4563,
      "fic": 4564,
      "▁دفع": 4565,
      "▁cho": 4566,
      "utes": 4567,
      "ثار": 4568,
      "مرار": 4569,
      "جاب": 4570,
      "▁cy": 4571,
      "▁pred": 4572,
      "▁Jan": 4573,
      "▁viol": 4574,
      "▁understand": 4575,
      "▁months": 4576,
      "خلي": 4577,
      "انيه": 4578,
      "▁means": 4579,
      "▁talk": 4580,
      "▁body": 4581,
      "لمات": 4582,
      "ambda": 4583,
      "َع": 4584,
      "▁طالب": 4585,
      "ounds": 4586,
      "ضى": 4587,
      "▁account": 4588,
      "▁target": 4589,
      "▁يعد": 4590,
      "عاد": 4591,
      "ئاسة": 4592,
      "دق": 4593,
      "ستخدم": 4594,
      "▁imm": 4595,
      "▁المب": 4596,
      "▁enough": 4597,
      "دير": 4598,
      "rences": 4599,
      "▁متر": 4600,
      "nes": 4601,
      "▁President": 4602,
      "▁higher": 4603,
      "▁سبتمبر": 4604,
      "▁pri": 4605,
      "ober": 4606,
      "▁الصغيرة": 4607,
      "▁كام": 4608,
      "▁Fl": 4609,
      "▁why": 4610,
      "▁sure": 4611,
      "▁third": 4612,
      "▁البرنامج": 4613,
      "ورك": 4614,
      "جير": 4615,
      "▁درا": 4616,
      "▁الأيام": 4617,
      "enc": 4618,
      "هِ": 4619,
      "خطط": 4620,
      "amma": 4621,
      "▁success": 4622,
      "▁either": 4623,
      "▁review": 4624,
      "▁تركيا": 4625,
      "Th": 4626,
      "ocr": 4627,
      "▁الفق": 4628,
      "▁حفظ": 4629,
      "▁points": 4630,
      "▁نظر": 4631,
      "▁الماض": 4632,
      "ume": 4633,
      "▁بينما": 4634,
      "▁للج": 4635,
      "▁روس": 4636,
      "▁اض": 4637,
      "▁الطاقة": 4638,
      "▁six": 4639,
      "▁according": 4640,
      "▁أكد": 4641,
      "▁total": 4642,
      "▁Me": 4643,
      "part": 4644,
      "▁ايضا": 4645,
      "opt": 4646,
      "ساء": 4647,
      "▁ey": 4648,
      "aces": 4649,
      "▁سبب": 4650,
      "راقي": 4651,
      "▁هؤلاء": 4652,
      "▁دليل": 4653,
      "وخ": 4654,
      "امه": 4655,
      "ustom": 4656,
      "فى": 4657,
      "▁نط": 4658,
      "▁access": 4659,
      "imal": 4660,
      "▁لماذا": 4661,
      "▁صار": 4662,
      "▁Man": 4663,
      "▁rate": 4664,
      "▁الطلب": 4665,
      "سكري": 4666,
      "ليب": 4667,
      "▁pract": 4668,
      "▁mor": 4669,
      "▁المنتدى": 4670,
      "▁اللبن": 4671,
      "▁dom": 4672,
      "▁certain": 4673,
      "▁inj": 4674,
      "▁thing": 4675,
      "▁مشاركة": 4676,
      "▁president": 4677,
      "▁ماذا": 4678,
      "▁price": 4679,
      "Re": 4680,
      "▁الخليج": 4681,
      "براير": 4682,
      "most": 4683,
      "▁port": 4684,
      "▁نز": 4685,
      "▁ثنا": 4686,
      "▁kind": 4687,
      "▁كثيرا": 4688,
      "▁مباشر": 4689,
      "ama": 4690,
      "فاض": 4691,
      "▁larg": 4692,
      "usion": 4693,
      "▁death": 4694,
      "ريض": 4695,
      "ened": 4696,
      "▁often": 4697,
      "▁عمليات": 4698,
      "▁الأطفال": 4699,
      "▁abs": 4700,
      "▁مواقع": 4701,
      "▁Pol": 4702,
      "rael": 4703,
      "▁أخبر": 4704,
      "▁cases": 4705,
      "▁done": 4706,
      "اريع": 4707,
      "▁عين": 4708,
      "▁Russ": 4709,
      "▁shown": 4710,
      "▁الأط": 4711,
      "▁دار": 4712,
      "▁money": 4713,
      "▁بالإضافة": 4714,
      "minist": 4715,
      "▁خلا": 4716,
      "▁ظل": 4717,
      "▁يحي": 4718,
      "sw": 4719,
      "▁إضافة": 4720,
      "▁رسالة": 4721,
      "▁ضر": 4722,
      "▁خبر": 4723,
      "▁الشم": 4724,
      "▁والر": 4725,
      "▁قطاع": 4726,
      "▁فترة": 4727,
      "كات": 4728,
      "▁كأس": 4729,
      "▁حصل": 4730,
      "▁در": 4731,
      ")/": 4732,
      "▁العمر": 4733,
      "▁final": 4734,
      "▁كون": 4735,
      "▁super": 4736,
      "▁Can": 4737,
      "ux": 4738,
      "▁true": 4739,
      "ونات": 4740,
      "ياب": 4741,
      "▁العالمي": 4742,
      "▁يريد": 4743,
      "▁السبت": 4744,
      "ape": 4745,
      "▁ولد": 4746,
      "واف": 4747,
      "▁design": 4748,
      "ويس": 4749,
      "َيْ": 4750,
      "قدير": 4751,
      "▁Ab": 4752,
      "▁عاما": 4753,
      "شا": 4754,
      "viron": 4755,
      "ee": 4756,
      "▁بالد": 4757,
      "▁city": 4758,
      "ادات": 4759,
      "▁سورة": 4760,
      "obal": 4761,
      "cont": 4762,
      "ources": 4763,
      "▁المرت": 4764,
      "td": 4765,
      "▁step": 4766,
      "▁جنيه": 4767,
      "▁شعر": 4768,
      "▁mass": 4769,
      "▁ظهر": 4770,
      "▁estab": 4771,
      "ديا": 4772,
      "▁مسلسل": 4773,
      "▁مسحوق": 4774,
      "قالات": 4775,
      "يح": 4776,
      "ألة": 4777,
      "فاظ": 4778,
      "▁قوة": 4779,
      "▁يحدث": 4780,
      "وجيه": 4781,
      "رائيلي": 4782,
      "▁groups": 4783,
      "▁السيارات": 4784,
      "▁الرمال": 4785,
      "mu": 4786,
      "ناك": 4787,
      "▁working": 4788,
      "▁حزب": 4789,
      "▁نسبة": 4790,
      "▁وعن": 4791,
      "verage": 4792,
      "▁كانوا": 4793,
      "▁job": 4794,
      "رها": 4795,
      "▁sat": 4796,
      "stit": 4797,
      "▁عمرو": 4798,
      "برى": 4799,
      "▁يونيو": 4800,
      "▁deal": 4801,
      "▁افت": 4802,
      "▁making": 4803,
      "▁Br": 4804,
      "▁police": 4805,
      "▁الجامعة": 4806,
      "angu": 4807,
      "▁lo": 4808,
      "برز": 4809,
      "▁mom": 4810,
      "empt": 4811,
      "▁مغرس": 4812,
      "راً": 4813,
      "alse": 4814,
      "iment": 4815,
      "▁seen": 4816,
      "▁بحث": 4817,
      "▁خمس": 4818,
      "artment": 4819,
      "▁ce": 4820,
      "▁trad": 4821,
      "▁ple": 4822,
      "▁Sun": 4823,
      "امية": 4824,
      "inf": 4825,
      "▁doc": 4826,
      "RE": 4827,
      "ze": 4828,
      "▁المنزل": 4829,
      "▁cut": 4830,
      "فيديو": 4831,
      "▁((": 4832,
      "▁however": 4833,
      "▁event": 4834,
      "▁للط": 4835,
      "▁فس": 4836,
      "▁course": 4837,
      "▁issue": 4838,
      "▁قالت": 4839,
      "خرة": 4840,
      "▁الشهر": 4841,
      "iver": 4842,
      "▁محمود": 4843,
      "$$": 4844,
      "▁المشروع": 4845,
      "▁عا": 4846,
      "asing": 4847,
      "▁الكل": 4848,
      "dex": 4849,
      "key": 4850,
      "زق": 4851,
      "▁شرح": 4852,
      "▁المقبل": 4853,
      "▁مايو": 4854,
      "طور": 4855,
      "▁respons": 4856,
      "▁تسم": 4857,
      "▁Cent": 4858,
      "▁become": 4859,
      "▁مباشرة": 4860,
      "▁المز": 4861,
      "▁went": 4862,
      "▁inf": 4863,
      "ەر": 4864,
      "▁phys": 4865,
      "BC": 4866,
      "▁ومت": 4867,
      "▁طال": 4868,
      "▁فهم": 4869,
      "▁code": 4870,
      "rab": 4871,
      "حدى": 4872,
      ",,": 4873,
      "ops": 4874,
      "col": 4875,
      "اكم": 4876,
      "▁phot": 4877,
      "▁رك": 4878,
      "▁التجارية": 4879,
      "قق": 4880,
      "بدو": 4881,
      "▁الفلسطيني": 4882,
      "label": 4883,
      "apan": 4884,
      "▁exist": 4885,
      "جهة": 4886,
      "▁القرار": 4887,
      "igma": 4888,
      "▁Israel": 4889,
      "iple": 4890,
      "▁تطوير": 4891,
      "▁شن": 4892,
      "نىڭ": 4893,
      "_\\": 4894,
      "▁برامج": 4895,
      "▁caus": 4896,
      "▁enc": 4897,
      "مم": 4898,
      "سطس": 4899,
      "ession": 4900,
      "ids": 4901,
      "جهيز": 4902,
      "▁المصنعة": 4903,
      "▁الاخت": 4904,
      "نون": 4905,
      "▁تعد": 4906,
      "use": 4907,
      "▁face": 4908,
      "▁Ste": 4909,
      "▁المحمول": 4910,
      "سبه": 4911,
      "▁عص": 4912,
      "NY": 4913,
      "▁الحس": 4914,
      "▁once": 4915,
      "▁الأخيرة": 4916,
      "▁معالجة": 4917,
      "▁specific": 4918,
      "▁نتيجة": 4919,
      "}^{": 4920,
      "ستاذ": 4921,
      "▁وتش": 4922,
      "▁شباب": 4923,
      "▁World": 4924,
      "php": 4925,
      "▁سلط": 4926,
      "ريت": 4927,
      "ogn": 4928,
      "▁repl": 4929,
      "▁prim": 4930,
      "▁ويس": 4931,
      "hy": 4932,
      "ique": 4933,
      "قامة": 4934,
      "▁روح": 4935,
      "▁الاجتماعي": 4936,
      "▁فبراير": 4937,
      "▁trial": 4938,
      "لاين": 4939,
      "ىل": 4940,
      "▁relations": 4941,
      "▁تُ": 4942,
      "itte": 4943,
      "وغ": 4944,
      "lected": 4945,
      "▁dise": 4946,
      "▁لغ": 4947,
      "▁dou": 4948,
      "▁السف": 4949,
      "▁يقدم": 4950,
      "▁eff": 4951,
      "▁الثلاثاء": 4952,
      "▁سبيل": 4953,
      "▁وتق": 4954,
      "▁فما": 4955,
      "uly": 4956,
      "gether": 4957,
      "▁IN": 4958,
      "▁together": 4959,
      "▁الجل": 4960,
      "علم": 4961,
      "IG": 4962,
      "▁former": 4963,
      "ماية": 4964,
      "▁أط": 4965,
      "irl": 4966,
      "▁expression": 4967,
      "▁البناء": 4968,
      "▁حسين": 4969,
      "▁subject": 4970,
      "▁University": 4971,
      "▁السياسي": 4972,
      "▁مالك": 4973,
      "hing": 4974,
      "▁house": 4975,
      "head": 4976,
      "▁المنتجات": 4977,
      "▁South": 4978,
      "iday": 4979,
      "▁مليار": 4980,
      "resp": 4981,
      "ومه": 4982,
      "▁الإخ": 4983,
      "كال": 4984,
      "▁Ass": 4985,
      "▁المناطق": 4986,
      "▁الخب": 4987,
      "▁الحص": 4988,
      "اجة": 4989,
      "▁مختلفة": 4990,
      "▁young": 4991,
      "▁المصدر": 4992,
      "▁room": 4993,
      "▁يصل": 4994,
      "▁sus": 4995,
      "han": 4996,
      "▁الدي": 4997,
      "▁across": 4998,
      "▁يمن": 4999,
      "▁deb": 5000,
      "▁energy": 5001,
      "▁نقطة": 5002,
      "▁مسلم": 5003,
      "ردشة": 5004,
      "▁service": 5005,
      "▁Brit": 5006,
      "Con": 5007,
      "▁التر": 5008,
      "▁propos": 5009,
      "▁dri": 5010,
      "▁aff": 5011,
      "▁space": 5012,
      "▁Mc": 5013,
      "▁وست": 5014,
      "▁وفق": 5015,
      "uture": 5016,
      "▁نب": 5017,
      "▁إسرائيل": 5018,
      "▁upon": 5019,
      "no": 5020,
      "▁الی": 5021,
      "▁ابت": 5022,
      "chan": 5023,
      "▁Ge": 5024,
      "▁bene": 5025,
      "▁هه": 5026,
      "▁إيران": 5027,
      "mathbb": 5028,
      "نسا": 5029,
      "▁الحوث": 5030,
      "▁السوري": 5031,
      "},": 5032,
      "▁طيب": 5033,
      "uit": 5034,
      "َد": 5035,
      "▁party": 5036,
      "▁Sy": 5037,
      "▁الإلكتروني": 5038,
      "idth": 5039,
      "ئلة": 5040,
      "▁added": 5041,
      "▁special": 5042,
      "وده": 5043,
      "▁lay": 5044,
      "▁المسؤول": 5045,
      "▁بداية": 5046,
      "شطة": 5047,
      "هادة": 5048,
      "▁الجهاز": 5049,
      "▁تكلفة": 5050,
      "▁held": 5051,
      "▁الإمام": 5052,
      "▁قيم": 5053,
      "▁الخص": 5054,
      "order": 5055,
      "ike": 5056,
      "UT": 5057,
      "دينا": 5058,
      "جاح": 5059,
      "فيد": 5060,
      "aff": 5061,
      "▁موج": 5062,
      "▁عاج": 5063,
      "▁Germ": 5064,
      "▁غس": 5065,
      "▁وإذا": 5066,
      "▁نمو": 5067,
      "▁half": 5068,
      "▁أرض": 5069,
      "▁حض": 5070,
      "▁الفصل": 5071,
      "▁كله": 5072,
      "ريا": 5073,
      "▁land": 5074,
      "▁cult": 5075,
      "▁ورد": 5076,
      "nt": 5077,
      "رجمة": 5078,
      "▁المقا": 5079,
      "div": 5080,
      "▁للاست": 5081,
      ".)": 5082,
      "▁lower": 5083,
      "▁others": 5084,
      "▁Par": 5085,
      "فيف": 5086,
      "▁مخت": 5087,
      "▁العاصمة": 5088,
      "▁bit": 5089,
      "▁necess": 5090,
      "ores": 5091,
      "اهل": 5092,
      "▁حرب": 5093,
      "▁include": 5094,
      "Ch": 5095,
      "▁taken": 5096,
      "▁Oct": 5097,
      "بيد": 5098,
      "▁التم": 5099,
      "▁bar": 5100,
      "▁ترا": 5101,
      "▁لر": 5102,
      "irm": 5103,
      "▁القطاع": 5104,
      "▁إليها": 5105,
      "▁wind": 5106,
      "علقة": 5107,
      "▁لعبة": 5108,
      "▁asked": 5109,
      "▁يزيد": 5110,
      "وارد": 5111,
      "ران": 5112,
      "▁الحمد": 5113,
      "OT": 5114,
      "▁تنظيم": 5115,
      "▁بعيد": 5116,
      "aced": 5117,
      "▁نور": 5118,
      "▁levels": 5119,
      "تو": 5120,
      "pone": 5121,
      "▁عضو": 5122,
      "medi": 5123,
      "▁الموسم": 5124,
      "▁الأسعار": 5125,
      "بين": 5126,
      "II": 5127,
      "ude": 5128,
      "▁::": 5129,
      "▁countries": 5130,
      "cted": 5131,
      "▁امام": 5132,
      "▁إعادة": 5133,
      "▁ever": 5134,
      "▁رجال": 5135,
      "▁الاد": 5136,
      "▁Japan": 5137,
      "▁role": 5138,
      "▁الدست": 5139,
      "▁detail": 5140,
      "▁شمال": 5141,
      "وعه": 5142,
      "}_{": 5143,
      "▁جمع": 5144,
      "▁amount": 5145,
      "ْت": 5146,
      "▁الشمس": 5147,
      "▁جمال": 5148,
      "▁national": 5149,
      "▁studies": 5150,
      "امن": 5151,
      "▁require": 5152,
      "fficient": 5153,
      "كرة": 5154,
      "ترنت": 5155,
      "ويد": 5156,
      "▁رحمه": 5157,
      "▁defend": 5158,
      "▁Gu": 5159,
      "▁الاقتصادية": 5160,
      "▁إح": 5161,
      "▁الیوم": 5162,
      "vironment": 5163,
      "▁مصدر": 5164,
      "▁فمن": 5165,
      "▁comput": 5166,
      "hern": 5167,
      "▁اختيار": 5168,
      "▁النح": 5169,
      "=\\": 5170,
      "rew": 5171,
      "▁increase": 5172,
      "▁decl": 5173,
      "load": 5174,
      "▁منتجات": 5175,
      "('": 5176,
      "▁عربي": 5177,
      "▁sens": 5178,
      "▁وغيرها": 5179,
      "▁age": 5180,
      "▁season": 5181,
      "رسل": 5182,
      "He": 5183,
      "▁political": 5184,
      "قييم": 5185,
      "iation": 5186,
      "▁يعتبر": 5187,
      "▁كرة": 5188,
      "▁بالج": 5189,
      "بيوتر": 5190,
      "▁|--": 5191,
      "imate": 5192,
      "LE": 5193,
      "ino": 5194,
      "وائد": 5195,
      "رعة": 5196,
      "▁معنى": 5197,
      "▁Am": 5198,
      "▁هيئة": 5199,
      "▁provided": 5200,
      "▁مان": 5201,
      "عيم": 5202,
      "ourn": 5203,
      "▁قراءة": 5204,
      "pi": 5205,
      "▁values": 5206,
      "▁خلق": 5207,
      "كلم": 5208,
      "ديمق": 5209,
      "▁سه": 5210,
      "راكز": 5211,
      "▁غرب": 5212,
      "▁المختلف": 5213,
      "▁فإنه": 5214,
      "▁try": 5215,
      "▁البعض": 5216,
      "▁مفت": 5217,
      "begin": 5218,
      "▁close": 5219,
      "كه": 5220,
      "▁حمل": 5221,
      "▁العين": 5222,
      "ثي": 5223,
      "ارد": 5224,
      "صدار": 5225,
      "▁particip": 5226,
      "▁إخ": 5227,
      "▁وأكد": 5228,
      "بعة": 5229,
      "▁rights": 5230,
      "▁يعط": 5231,
      "ثمان": 5232,
      "▁منك": 5233,
      "▁ver": 5234,
      "ائع": 5235,
      "▁بنفس": 5236,
      "▁متنقلة": 5237,
      "ada": 5238,
      "▁وله": 5239,
      "▁sequ": 5240,
      "▁قاد": 5241,
      "Pro": 5242,
      "▁المادة": 5243,
      "▁response": 5244,
      "ball": 5245,
      "▁love": 5246,
      "▁الأربع": 5247,
      "▁وحدة": 5248,
      "حتى": 5249,
      "▁toward": 5250,
      "ويتر": 5251,
      "▁نائب": 5252,
      "اطر": 5253,
      "رسال": 5254,
      "▁تفسير": 5255,
      "▁==": 5256,
      "غال": 5257,
      "▁برا": 5258,
      "▁ur": 5259,
      "▁error": 5260,
      "ables": 5261,
      "▁Cont": 5262,
      "▁international": 5263,
      "▁محافظ": 5264,
      "صالات": 5265,
      "▁news": 5266,
      "▁اتفاق": 5267,
      "▁از": 5268,
      "▁وحده": 5269,
      "قلت": 5270,
      "▁صنا": 5271,
      "▁foc": 5272,
      "ُّ": 5273,
      "angle": 5274,
      "صاص": 5275,
      "▁Then": 5276,
      "▁عباس": 5277,
      "sequ": 5278,
      "صدق": 5279,
      "▁النق": 5280,
      "ideo": 5281,
      "طوير": 5282,
      "▁عمان": 5283,
      "حمة": 5284,
      "▁العاب": 5285,
      "▁جهة": 5286,
      "▁yet": 5287,
      "▁عندي": 5288,
      "▁الرد": 5289,
      "lete": 5290,
      "▁البن": 5291,
      "▁العض": 5292,
      "ival": 5293,
      "ائدة": 5294,
      "][": 5295,
      "▁National": 5296,
      "▁Aust": 5297,
      "▁effort": 5298,
      "▁See": 5299,
      "▁check": 5300,
      "▁tw": 5301,
      "▁terms": 5302,
      "aligned": 5303,
      "▁الري": 5304,
      "▁أمير": 5305,
      "▁الاش": 5306,
      "ائد": 5307,
      "▁social": 5308,
      "▁miss": 5309,
      "▁يوليو": 5310,
      "uk": 5311,
      "▁exam": 5312,
      "iet": 5313,
      "▁إطار": 5314,
      "▁فإذا": 5315,
      "App": 5316,
      "▁العن": 5317,
      "▁حركة": 5318,
      "▁مصادر": 5319,
      "▁طول": 5320,
      "▁الفرق": 5321,
      "َو": 5322,
      "أي": 5323,
      "وزيع": 5324,
      "▁risk": 5325,
      "راتيجية": 5326,
      "ەت": 5327,
      "▁doing": 5328,
      "▁decision": 5329,
      "ches": 5330,
      "▁Pe": 5331,
      "▁موسى": 5332,
      "▁الور": 5333,
      "ضل": 5334,
      "html": 5335,
      "▁انته": 5336,
      "AG": 5337,
      "▁كذا": 5338,
      "▁required": 5339,
      "▁راح": 5340,
      "abor": 5341,
      "ruction": 5342,
      "▁يجوز": 5343,
      "▁Aug": 5344,
      "شاركة": 5345,
      "raq": 5346,
      "▁الإدارة": 5347,
      "▁محافظة": 5348,
      "ناس": 5349,
      "▁الرجال": 5350,
      "▁سليمان": 5351,
      "▁param": 5352,
      "ND": 5353,
      "▁expected": 5354,
      "▁separ": 5355,
      "ماعيل": 5356,
      "ription": 5357,
      "ese": 5358,
      "********": 5359,
      "طا": 5360,
      "▁doesn": 5361,
      "▁كلها": 5362,
      "▁واف": 5363,
      "▁التربية": 5364,
      "lim": 5365,
      "فاة": 5366,
      "mit": 5367,
      "▁مهم": 5368,
      "▁vir": 5369,
      "▁complet": 5370,
      "▁أرب": 5371,
      "}_": 5372,
      "usep": 5373,
      "واه": 5374,
      "▁القوات": 5375,
      "▁أك": 5376,
      "▁Cor": 5377,
      "وعات": 5378,
      "ension": 5379,
      "▁الباب": 5380,
      "▁صدى": 5381,
      "▁المطل": 5382,
      "▁نتائج": 5383,
      "▁Christ": 5384,
      "▁الشرطة": 5385,
      "▁site": 5386,
      "عود": 5387,
      "خه": 5388,
      "▁فيك": 5389,
      "ribution": 5390,
      "atur": 5391,
      "test": 5392,
      "What": 5393,
      "ortun": 5394,
      "▁سين": 5395,
      "▁request": 5396,
      "▁تحتاج": 5397,
      "▁العظيم": 5398,
      "تاز": 5399,
      "▁الطفل": 5400,
      "اليات": 5401,
      "▁لخطوط": 5402,
      "rs": 5403,
      "▁الدور": 5404,
      "▁region": 5405,
      "ارض": 5406,
      "}$$": 5407,
      "ابية": 5408,
      "▁base": 5409,
      "▁His": 5410,
      "cil": 5411,
      "افيه": 5412,
      "▁تفاصيل": 5413,
      "▁المرحلة": 5414,
      "off": 5415,
      "ريعة": 5416,
      "وحة": 5417,
      "▁الملف": 5418,
      "▁وذكر": 5419,
      "▁log": 5420,
      "▁تعرض": 5421,
      "▁لمدة": 5422,
      "▁research": 5423,
      "atures": 5424,
      "▁النبات": 5425,
      "▁هدف": 5426,
      "usepackage": 5427,
      "aid": 5428,
      "▁security": 5429,
      "▁الصحية": 5430,
      "▁وسائل": 5431,
      "▁أون": 5432,
      "▁يتعلق": 5433,
      "▁ولاية": 5434,
      "▁Afric": 5435,
      "يتي": 5436,
      "▁دراسة": 5437,
      "واز": 5438,
      "ittee": 5439,
      "▁بشر": 5440,
      "▁عيد": 5441,
      "▁المؤتمر": 5442,
      "▁المخت": 5443,
      "ِل": 5444,
      "تاح": 5445,
      "▁conditions": 5446,
      "ولد": 5447,
      "▁indust": 5448,
      "▁تسجيل": 5449,
      "بغي": 5450,
      "يدة": 5451,
      "▁المنتخب": 5452,
      "بارك": 5453,
      "▁Dep": 5454,
      "ادية": 5455,
      "خام": 5456,
      "▁توق": 5457,
      "▁Part": 5458,
      "▁tax": 5459,
      "▁clos": 5460,
      "▁الزرا": 5461,
      "▁compared": 5462,
      "▁pub": 5463,
      "ached": 5464,
      "IM": 5465,
      "▁حز": 5466,
      "OP": 5467,
      "عرف": 5468,
      "▁فلسطين": 5469,
      "▁doll": 5470,
      "▁بنسبة": 5471,
      "ube": 5472,
      "▁Apr": 5473,
      "sum": 5474,
      "omet": 5475,
      "▁للص": 5476,
      "▁أصحاب": 5477,
      "آت": 5478,
      "▁الروا": 5479,
      "▁الواقع": 5480,
      "عملة": 5481,
      "▁food": 5482,
      "ivity": 5483,
      "لمان": 5484,
      "▁عظيم": 5485,
      "▁المواطنين": 5486,
      "▁طائ": 5487,
      "gress": 5488,
      "▁أشهر": 5489,
      "▁mess": 5490,
      "▁الحالي": 5491,
      "▁Iraq": 5492,
      "▁مكتب": 5493,
      "▁rul": 5494,
      "هاء": 5495,
      "حقوق": 5496,
      "▁drug": 5497,
      "▁وأشار": 5498,
      "▁concern": 5499,
      "▁سجل": 5500,
      "▁المحلية": 5501,
      "▁وتت": 5502,
      "روك": 5503,
      "ran": 5504,
      "▁text": 5505,
      "بيض": 5506,
      "▁conduct": 5507,
      "▁الاثنين": 5508,
      "gment": 5509,
      "phi": 5510,
      "▁مرض": 5511,
      "CH": 5512,
      "▁Pat": 5513,
      "طات": 5514,
      "];": 5515,
      "istic": 5516,
      "▁امت": 5517,
      "▁روسيا": 5518,
      "ارى": 5519,
      "▁علاج": 5520,
      "▁الابت": 5521,
      "لون": 5522,
      "قبال": 5523,
      "ights": 5524,
      "▁Ag": 5525,
      "▁درجة": 5526,
      "▁القاد": 5527,
      "▁الأق": 5528,
      "▁المؤمن": 5529,
      "▁فهي": 5530,
      "▁لعب": 5531,
      "Ex": 5532,
      "َت": 5533,
      "▁trying": 5534,
      "▁ago": 5535,
      "ixed": 5536,
      "ceed": 5537,
      "time": 5538,
      "▁الانترنت": 5539,
      "▁الإد": 5540,
      "خصوص": 5541,
      "▁الفنان": 5542,
      "▁exc": 5543,
      "iction": 5544,
      "▁associated": 5545,
      "▁وعند": 5546,
      "▁منزل": 5547,
      "▁الزوج": 5548,
      "خير": 5549,
      "عون": 5550,
      "▁والغ": 5551,
      "صفات": 5552,
      "ibr": 5553,
      "▁increased": 5554,
      "يدر": 5555,
      "صلة": 5556,
      "▁وبال": 5557,
      "data": 5558,
      "▁كيل": 5559,
      "▁متن": 5560,
      "فاوض": 5561,
      "amm": 5562,
      "واعد": 5563,
      "راحة": 5564,
      "ذف": 5565,
      "▁ئى": 5566,
      "▁future": 5567,
      "▁activity": 5568,
      "iter": 5569,
      "▁توفير": 5570,
      "▁THE": 5571,
      "عش": 5572,
      "▁الكم": 5573,
      "▁وتس": 5574,
      "▁تض": 5575,
      "▁رفض": 5576,
      "▁Not": 5577,
      "▁([": 5578,
      "▁cannot": 5579,
      "خفض": 5580,
      "▁المسي": 5581,
      "iting": 5582,
      "▁الساد": 5583,
      "oud": 5584,
      "▁matter": 5585,
      "▁الاجتماعية": 5586,
      "▁قم": 5587,
      "▁today": 5588,
      "كتر": 5589,
      "وفيق": 5590,
      "▁dam": 5591,
      "▁changes": 5592,
      "▁أقل": 5593,
      "▁break": 5594,
      "▁تركيب": 5595,
      "▁potential": 5596,
      "▁!!": 5597,
      "▁Pal": 5598,
      "▁fall": 5599,
      "ادن": 5600,
      "يسى": 5601,
      "▁المحمولة": 5602,
      "▁الغذا": 5603,
      "▁سيارات": 5604,
      "▁regard": 5605,
      "▁ماي": 5606,
      "▁likely": 5607,
      "▁الوضع": 5608,
      "CC": 5609,
      "▁range": 5610,
      "ederal": 5611,
      "▁جع": 5612,
      "▁الاف": 5613,
      "▁بالب": 5614,
      "▁Wed": 5615,
      "كين": 5616,
      "وبات": 5617,
      "▁بأس": 5618,
      "▁الكسارة": 5619,
      "▁compet": 5620,
      "قيقه": 5621,
      "▁عج": 5622,
      "خاذ": 5623,
      "▁black": 5624,
      "pping": 5625,
      "mod": 5626,
      "▁تغيير": 5627,
      "▁المختلفة": 5628,
      "امر": 5629,
      "▁Med": 5630,
      "ception": 5631,
      "▁frequ": 5632,
      "▁tre": 5633,
      "حاق": 5634,
      "▁تعليم": 5635,
      "roid": 5636,
      "▁ep": 5637,
      "▁الهيئة": 5638,
      "▁image": 5639,
      "ظل": 5640,
      "▁er": 5641,
      "▁officials": 5642,
      "atter": 5643,
      "oo": 5644,
      "وانين": 5645,
      "▁content": 5646,
      "▁military": 5647,
      "▁المنتج": 5648,
      "UL": 5649,
      "anguage": 5650,
      "ائزة": 5651,
      "isc": 5652,
      "ذل": 5653,
      "هج": 5654,
      "><": 5655,
      "cle": 5656,
      "▁rather": 5657,
      "▁لهذه": 5658,
      "▁artic": 5659,
      "▁....": 5660,
      "▁تز": 5661,
      "▁الليل": 5662,
      "▁ومس": 5663,
      "now": 5664,
      "▁soft": 5665,
      "▁pick": 5666,
      "▁Ser": 5667,
      "▁شهد": 5668,
      "sq": 5669,
      "▁الاتفاق": 5670,
      "ضب": 5671,
      "▁حاليا": 5672,
      "▁almost": 5673,
      "شاف": 5674,
      "elt": 5675,
      "▁ste": 5676,
      "▁red": 5677,
      "▁مساعد": 5678,
      "lambda": 5679,
      "▁تحديد": 5680,
      "▁Qu": 5681,
      "▁بور": 5682,
      "رفض": 5683,
      "طفى": 5684,
      "\"،": 5685,
      "▁الاص": 5686,
      "▁source": 5687,
      "▁analy": 5688,
      "▁النصر": 5689,
      "▁اكبر": 5690,
      "ناق": 5691,
      "▁billion": 5692,
      "▁تمت": 5693,
      "▁المستخدمة": 5694,
      "▁hom": 5695,
      "خيص": 5696,
      "▁exec": 5697,
      "▁ذهب": 5698,
      "ili": 5699,
      "▁يحتاج": 5700,
      "بيعة": 5701,
      "▁جميل": 5702,
      "itch": 5703,
      "نيف": 5704,
      "▁نطاق": 5705,
      "سون": 5706,
      "ويلة": 5707,
      "راضي": 5708,
      "▁سيكون": 5709,
      "▁جام": 5710,
      "ington": 5711,
      "ogle": 5712,
      "IR": 5713,
      "▁described": 5714,
      "}^": 5715,
      "▁mechan": 5716,
      "▁تصل": 5717,
      "▁q": 5718,
      "▁Sept": 5719,
      "▁المشك": 5720,
      "▁diffic": 5721,
      "وصل": 5722,
      "▁قصة": 5723,
      "utions": 5724,
      "▁administ": 5725,
      "ريكي": 5726,
      "▁الاتصال": 5727,
      "▁اقرأ": 5728,
      "la": 5729,
      "rown": 5730,
      "تيب": 5731,
      "var": 5732,
      "amed": 5733,
      "iles": 5734,
      "يرات": 5735,
      "▁Acc": 5736,
      "▁يحيى": 5737,
      "▁أغسطس": 5738,
      "▁الجمعية": 5739,
      "▁كلمات": 5740,
      "sm": 5741,
      "▁الموت": 5742,
      "شارة": 5743,
      "▁شا": 5744,
      "▁عبدالعزيز": 5745,
      "كسارة": 5746,
      "▁كر": 5747,
      "ser": 5748,
      "▁whole": 5749,
      "▁الأكثر": 5750,
      "▁يارب": 5751,
      "ependent": 5752,
      "▁زيد": 5753,
      "▁التنمية": 5754,
      "▁blood": 5755,
      "▁وبالت": 5756,
      "▁Republic": 5757,
      "اية": 5758,
      "▁fund": 5759,
      "▁minutes": 5760,
      "َى": 5761,
      "▁mind": 5762,
      "▁اخرى": 5763,
      "▁March": 5764,
      "▁words": 5765,
      "جو": 5766,
      "لقى": 5767,
      "▁المعد": 5768,
      "▁العملية": 5769,
      "▁بهذه": 5770,
      "▁الصلة": 5771,
      "▁المباراة": 5772,
      "▁مين": 5773,
      "▁طرق": 5774,
      "▁ممن": 5775,
      "▁El": 5776,
      "iding": 5777,
      "ليقات": 5778,
      "▁تريد": 5779,
      "aly": 5780,
      "▁معظم": 5781,
      "▁prior": 5782,
      "بال": 5783,
      "يان": 5784,
      "▁Sim": 5785,
      "▁هال": 5786,
      "حاول": 5787,
      "ges": 5788,
      "▁قريبا": 5789,
      "▁الها": 5790,
      "قته": 5791,
      "▁الدائ": 5792,
      "▁الكسارات": 5793,
      "▁أعضاء": 5794,
      "▁المشت": 5795,
      "سف": 5796,
      "▁Dem": 5797,
      "▁demon": 5798,
      "▁والمت": 5799,
      "▁أهمية": 5800,
      "▁كار": 5801,
      "▁difficult": 5802,
      "▁برو": 5803,
      "▁showed": 5804,
      "▁Des": 5805,
      "▁قناة": 5806,
      "▁‘": 5807,
      "▁غيره": 5808,
      "▁العلاقات": 5809,
      "▁Friday": 5810,
      "وجب": 5811,
      "▁فلم": 5812,
      "▁loss": 5813,
      "▁يعلم": 5814,
      "▁الصحي": 5815,
      "▁recent": 5816,
      "▁يوما": 5817,
      "-\\": 5818,
      "▁أعلى": 5819,
      "▁ربما": 5820,
      "▁الشريف": 5821,
      "▁Do": 5822,
      "▁believe": 5823,
      "▁makes": 5824,
      "ظار": 5825,
      "cd": 5826,
      "return": 5827,
      "book": 5828,
      "ache": 5829,
      "alt": 5830,
      "ئين": 5831,
      "▁وسي": 5832,
      "علنت": 5833,
      "قاً": 5834,
      "umn": 5835,
      "▁anything": 5836,
      "▁fav": 5837,
      "▁السابع": 5838,
      "▁###": 5839,
      "▁sex": 5840,
      "طوان": 5841,
      "▁سف": 5842,
      "idered": 5843,
      "ربه": 5844,
      "▁السودان": 5845,
      "ذار": 5846,
      "▁بمع": 5847,
      "عدا": 5848,
      "▁مكافحة": 5849,
      "▁المرا": 5850,
      "▁الانسان": 5851,
      "table": 5852,
      "▁الاسمنت": 5853,
      "▁series": 5854,
      "▁measure": 5855,
      "▁النت": 5856,
      "▁سؤال": 5857,
      "▁بأنه": 5858,
      "▁الثالثة": 5859,
      "ev": 5860,
      "ips": 5861,
      "▁دخول": 5862,
      "▁private": 5863,
      "▁Bar": 5864,
      "▁سمعت": 5865,
      "مسة": 5866,
      "▁عروض": 5867,
      "▁نفسي": 5868,
      "▁خب": 5869,
      "▁اتصل": 5870,
      "▁custom": 5871,
      "▁الدخول": 5872,
      "▁June": 5873,
      "▁nothing": 5874,
      "▁North": 5875,
      "▁Tues": 5876,
      "▁العراقي": 5877,
      "▁experience": 5878,
      "▁الانتخابات": 5879,
      "▁حياة": 5880,
      "▁صلاح": 5881,
      "wh": 5882,
      "▁fig": 5883,
      "▁المطرقة": 5884,
      "اليه": 5885,
      "osis": 5886,
      "▁looking": 5887,
      "▁history": 5888,
      "iddle": 5889,
      ".'": 5890,
      "▁الفجر": 5891,
      "▁عنوان": 5892,
      "▁قيمة": 5893,
      "▁Comp": 5894,
      "lier": 5895,
      "▁لقاء": 5896,
      "▁hours": 5897,
      "▁اهم": 5898,
      "حيث": 5899,
      "▁الياب": 5900,
      "▁id": 5901,
      "cing": 5902,
      "▁effects": 5903,
      "▁الجسم": 5904,
      "▁وهذه": 5905,
      "▁implement": 5906,
      "▁complex": 5907,
      "▁Monday": 5908,
      "لبية": 5909,
      "ُمْ": 5910,
      "▁بهم": 5911,
      "ظاهر": 5912,
      "▁live": 5913,
      "▁address": 5914,
      "▁العنا": 5915,
      "یة": 5916,
      "سد": 5917,
      "vention": 5918,
      "فية": 5919,
      "▁various": 5920,
      "ENT": 5921,
      "▁Tuesday": 5922,
      "▁considered": 5923,
      "})": 5924,
      "▁المدني": 5925,
      "▁وعدم": 5926,
      "▁أبريل": 5927,
      "امين": 5928,
      "hem": 5929,
      "سو": 5930,
      "▁ألا": 5931,
      "▁الطرق": 5932,
      "▁الألم": 5933,
      "كير": 5934,
      "▁النادي": 5935,
      "oin": 5936,
      "ivil": 5937,
      "تا": 5938,
      "كَ": 5939,
      "▁nuc": 5940,
      "كيم": 5941,
      "ana": 5942,
      "▁الجزء": 5943,
      "▁وحتى": 5944,
      "ires": 5945,
      "arrow": 5946,
      "▁Per": 5947,
      "▁وأما": 5948,
      "▁financ": 5949,
      "▁Fig": 5950,
      "▁مناط": 5951,
      "ection": 5952,
      "رفه": 5953,
      "▁أساس": 5954,
      "NYT": 5955,
      "▁ساعات": 5956,
      "▁${\\": 5957,
      "▁بالصور": 5958,
      "nesday": 5959,
      "▁Suppose": 5960,
      "anks": 5961,
      "▁دورة": 5962,
      "▁shows": 5963,
      "▁host": 5964,
      "▁affect": 5965,
      "▁Now": 5966,
      "▁الأسبوع": 5967,
      "▁Feb": 5968,
      "▁begin": 5969,
      "▁جان": 5970,
      "▁issues": 5971,
      "▁section": 5972,
      "ground": 5973,
      "▁وقالت": 5974,
      "▁تداول": 5975,
      "▁بنات": 5976,
      "لمي": 5977,
      "▁الوصول": 5978,
      "▁بالط": 5979,
      "ua": 5980,
      "ging": 5981,
      "▁front": 5982,
      "▁Some": 5983,
      "▁Gl": 5984,
      "▁الأحد": 5985,
      "▁رواية": 5986,
      "reet": 5987,
      "pm": 5988,
      "▁vict": 5989,
      "▁learn": 5990,
      "▁النحاس": 5991,
      "▁بعي": 5992,
      "▁heart": 5993,
      "حول": 5994,
      "▁community": 5995,
      "▁انف": 5996,
      "▁الرابع": 5997,
      "sub": 5998,
      "ster": 5999,
      "onal": 6000,
      "inary": 6001,
      "قيقي": 6002,
      "طح": 6003,
      "ليس": 6004,
      "ريبة": 6005,
      "الق": 6006,
      "لعاب": 6007,
      "www": 6008,
      "▁Wednesday": 6009,
      "chie": 6010,
      "▁خصوص": 6011,
      "▁services": 6012,
      "▁يذكر": 6013,
      "span": 6014,
      "▁بِ": 6015,
      "▁version": 6016,
      "mon": 6017,
      "▁normal": 6018,
      "▁القدس": 6019,
      "ندس": 6020,
      "▁actually": 6021,
      "امات": 6022,
      "EM": 6023,
      "ss": 6024,
      "لاحظ": 6025,
      "▁growth": 6026,
      "▁create": 6027,
      "تهاء": 6028,
      "▁approach": 6029,
      "ضيف": 6030,
      "▁خرج": 6031,
      "▁البوا": 6032,
      "▁الدعم": 6033,
      "▁الطائ": 6034,
      "حف": 6035,
      "ursday": 6036,
      "]).": 6037,
      "▁coll": 6038,
      "▁محل": 6039,
      "▁below": 6040,
      "خصصة": 6041,
      "▁شارع": 6042,
      "eks": 6043,
      "ثلة": 6044,
      "روة": 6045,
      "▁Will": 6046,
      "▁cross": 6047,
      "▁ليت": 6048,
      "asc": 6049,
      "▁parent": 6050,
      "▁المعت": 6051,
      "▁الحسين": 6052,
      "ريمة": 6053,
      "▁اسعار": 6054,
      "ىلى": 6055,
      "طه": 6056,
      "▁received": 6057,
      "ervice": 6058,
      "{{\\": 6059,
      "▁سلام": 6060,
      "▁systems": 6061,
      "▁عشرة": 6062,
      "▁المهم": 6063,
      "Name": 6064,
      "اوي": 6065,
      "يله": 6066,
      "▁moment": 6067,
      "Cl": 6068,
      "▁chall": 6069,
      "clude": 6070,
      "▁وجل": 6071,
      "▁ill": 6072,
      "▁عنده": 6073,
      "▁وفر": 6074,
      "▁maint": 6075,
      "itting": 6076,
      "ava": 6077,
      "▁Thursday": 6078,
      "▁accept": 6079,
      "▁fire": 6080,
      "imum": 6081,
      "▁مناطق": 6082,
      "▁standard": 6083,
      "▁شيئا": 6084,
      "▁فلما": 6085,
      "mathbf": 6086,
      "aintiff": 6087,
      "▁السم": 6088,
      "ero": 6089,
      "▁surface": 6090,
      "▁نفسها": 6091,
      "▁meeting": 6092,
      "▁story": 6093,
      "vb": 6094,
      "▁لكي": 6095,
      "▁لازم": 6096,
      "▁Fin": 6097,
      "”.": 6098,
      "حاء": 6099,
      "▁الامارات": 6100,
      "شيخ": 6101,
      "▁الأب": 6102,
      "▁While": 6103,
      "ضًا": 6104,
      "AB": 6105,
      "istance": 6106,
      "▁أخذ": 6107,
      "▁البد": 6108,
      "▁الأصل": 6109,
      "▁المواضيع": 6110,
      "respond": 6111,
      "▁الفلسطينية": 6112,
      "▁النوع": 6113,
      "خدمات": 6114,
      "ْر": 6115,
      "▁Har": 6116,
      "▁سوى": 6117,
      "▁compan": 6118,
      "▁القت": 6119,
      "▁القول": 6120,
      "▁كن": 6121,
      "▁الخدمة": 6122,
      "▁Bo": 6123,
      "جليزية": 6124,
      "رير": 6125,
      "ris": 6126,
      "▁فصل": 6127,
      "▁هكذا": 6128,
      "OD": 6129,
      "▁corre": 6130,
      "اهم": 6131,
      "▁للك": 6132,
      "▁مِن": 6133,
      "رفين": 6134,
      "ilt": 6135,
      "▁فيلم": 6136,
      "▁([@": 6137,
      "▁باستخدام": 6138,
      "امت": 6139,
      "▁خطة": 6140,
      "ئل": 6141,
      "▁والمع": 6142,
      "▁ياس": 6143,
      "▁لتن": 6144,
      "▁اليد": 6145,
      "osition": 6146,
      "▁المستوى": 6147,
      "▁Sw": 6148,
      "▁إحدى": 6149,
      "▁environment": 6150,
      "نتين": 6151,
      "▁late": 6152,
      "▁المدير": 6153,
      "يبه": 6154,
      "▁احصل": 6155,
      "ey": 6156,
      "▁قلبي": 6157,
      "صبح": 6158,
      "▁July": 6159,
      "▁City": 6160,
      "▁الصناعية": 6161,
      "▁إنشاء": 6162,
      "▁cle": 6163,
      "▁تعليق": 6164,
      "فاءة": 6165,
      "▁الواحد": 6166,
      "▁باك": 6167,
      "▁disease": 6168,
      "▁سيارة": 6169,
      "▁included": 6170,
      "▁علامة": 6171,
      "▁taking": 6172,
      "▁شرق": 6173,
      "oph": 6174,
      "▁الرك": 6175,
      "▁أر": 6176,
      "اتهم": 6177,
      "▁compon": 6178,
      "ثبت": 6179,
      "omb": 6180,
      "▁وطن": 6181,
      "▁يجعل": 6182,
      "▁لكرة": 6183,
      "▁مؤتمر": 6184,
      "فاف": 6185,
      "▁getting": 6186,
      "CT": 6187,
      "▁structure": 6188,
      "▁إنما": 6189,
      "▁شئ": 6190,
      "based": 6191,
      "بيعية": 6192,
      "▁fra": 6193,
      "▁ملابس": 6194,
      "شب": 6195,
      "Ph": 6196,
      "pecially": 6197,
      "ويا": 6198,
      "body": 6199,
      "▁والمس": 6200,
      "▁الامير": 6201,
      "▁href": 6202,
      "▁المتعلقة": 6203,
      "▁تعتبر": 6204,
      "▁dest": 6205,
      "hers": 6206,
      "▁statement": 6207,
      "▁الفور": 6208,
      "▁started": 6209,
      "▁ايه": 6210,
      "▁المصنع": 6211,
      "وبه": 6212,
      "▁الثان": 6213,
      "df": 6214,
      "ply": 6215,
      "▁ترت": 6216,
      "▁observed": 6217,
      "▁قلي": 6218,
      "raw": 6219,
      "مى": 6220,
      "mitted": 6221,
      "▁مدى": 6222,
      "ظيفة": 6223,
      "▁compl": 6224,
      "▁اجل": 6225,
      "▁contract": 6226,
      "▁user": 6227,
      "▁God": 6228,
      "نج": 6229,
      "▁فق": 6230,
      "بحت": 6231,
      "istan": 6232,
      "▁القيام": 6233,
      "▁positive": 6234,
      "▁diag": 6235,
      "▁problems": 6236,
      "ارير": 6237,
      "▁صفحة": 6238,
      "حدد": 6239,
      "▁related": 6240,
      "▁ut": 6241,
      "▁signal": 6242,
      "▁صيانة": 6243,
      "▁يز": 6244,
      "▁المقب": 6245,
      "▁الأخبار": 6246,
      "▁البنك": 6247,
      "ening": 6248,
      "▁السؤال": 6249,
      "▁ھ": 6250,
      "قيم": 6251,
      "izing": 6252,
      "▁factors": 6253,
      "▁معنا": 6254,
      "▁media": 6255,
      "▁كشف": 6256,
      "unction": 6257,
      "▁المرض": 6258,
      "equ": 6259,
      "▁ويمكن": 6260,
      "دخل": 6261,
      "ويق": 6262,
      "نائ": 6263,
      "▁كثيرة": 6264,
      "lying": 6265,
      "صاب": 6266,
      "▁behind": 6267,
      "▁بدر": 6268,
      "ha": 6269,
      "▁شارك": 6270,
      "▁تعزيز": 6271,
      "ليك": 6272,
      "▁نفسك": 6273,
      "▁himself": 6274,
      "ague": 6275,
      "▁bad": 6276,
      "▁العب": 6277,
      "▁المستقبل": 6278,
      "▁House": 6279,
      "fully": 6280,
      "▁اللقاء": 6281,
      "tes": 6282,
      "▁April": 6283,
      "▁works": 6284,
      "do": 6285,
      "ensive": 6286,
      "است": 6287,
      "▁Dav": 6288,
      "▁عاش": 6289,
      "▁states": 6290,
      "▁الأل": 6291,
      "▁أيضاً": 6292,
      "▁temper": 6293,
      "▁anti": 6294,
      "ذين": 6295,
      "▁block": 6296,
      "▁economic": 6297,
      "▁الصورة": 6298,
      "▁القضاء": 6299,
      "ades": 6300,
      "▁force": 6301,
      "AFP": 6302,
      "▁السلطة": 6303,
      "راز": 6304,
      "▁بينهم": 6305,
      "▁إث": 6306,
      "▁wanted": 6307,
      "ادت": 6308,
      "eters": 6309,
      "▁البريط": 6310,
      "rix": 6311,
      "بطة": 6312,
      "oke": 6313,
      "▁Act": 6314,
      "راطية": 6315,
      "▁مخروطية": 6316,
      "▁cause": 6317,
      "▁اجتماع": 6318,
      "▁rat": 6319,
      "ilon": 6320,
      "▁المصری": 6321,
      "▁الأخير": 6322,
      "▁مني": 6323,
      "▁stri": 6324,
      "ارنة": 6325,
      "hold": 6326,
      "beta": 6327,
      "الع": 6328,
      "▁Ed": 6329,
      "▁void": 6330,
      "▁النقل": 6331,
      "Com": 6332,
      "▁sil": 6333,
      "▁فرنسا": 6334,
      "▁educ": 6335,
      "ديمة": 6336,
      "لالة": 6337,
      "▁entire": 6338,
      "selves": 6339,
      "▁sam": 6340,
      "▁clin": 6341,
      "▁العملاء": 6342,
      "▁الوح": 6343,
      "▁أحدث": 6344,
      "▁نم": 6345,
      "قطاع": 6346,
      "ilities": 6347,
      "▁سمع": 6348,
      "▁سنه": 6349,
      "^{-": 6350,
      "قين": 6351,
      "▁link": 6352,
      "▁مؤك": 6353,
      "ae": 6354,
      "▁لاي": 6355,
      "▁ترى": 6356,
      "unch": 6357,
      "▁ضرب": 6358,
      "▁item": 6359,
      "▁occur": 6360,
      "لل": 6361,
      "▁ونحن": 6362,
      "▁tele": 6363,
      "جزاء": 6364,
      "▁وإنما": 6365,
      "▁يأتي": 6366,
      "▁الأز": 6367,
      "▁improve": 6368,
      "▁table": 6369,
      "▁max": 6370,
      "ْم": 6371,
      "▁policy": 6372,
      "▁العليا": 6373,
      "▁بهدف": 6374,
      "▁وظائف": 6375,
      "انس": 6376,
      "ائه": 6377,
      "▁جودة": 6378,
      "ادل": 6379,
      "▁السفر": 6380,
      "▁فی": 6381,
      "ياجات": 6382,
      "▁peace": 6383,
      "ائب": 6384,
      "IV": 6385,
      "▁مقر": 6386,
      "▁ليبيا": 6387,
      "▁النو": 6388,
      "درات": 6389,
      "ror": 6390,
      "▁achie": 6391,
      "▁network": 6392,
      "▁لدينا": 6393,
      "  ": 6394,
      "▁ناصر": 6395,
      ")(": 6396,
      "SS": 6397,
      "َق": 6398,
      "▁oil": 6399,
      "▁War": 6400,
      "▁الجانب": 6401,
      "صه": 6402,
      "▁needed": 6403,
      "▁الأربعاء": 6404,
      "▁integr": 6405,
      "شه": 6406,
      "\"}).": 6407,
      "▁البيانات": 6408,
      "▁متى": 6409,
      "ذاب": 6410,
      "▁America": 6411,
      "▁dig": 6412,
      "▁Sol": 6413,
      "▁quant": 6414,
      "\\_": 6415,
      "▁نح": 6416,
      "▁بالص": 6417,
      "eq": 6418,
      "ثمر": 6419,
      "ills": 6420,
      "▁الماضية": 6421,
      "bit": 6422,
      "▁منع": 6423,
      "قصى": 6424,
      "▁attempt": 6425,
      "▁فوز": 6426,
      "▁زيارة": 6427,
      "▁saying": 6428,
      "▁وجد": 6429,
      "▁began": 6430,
      "▁property": 6431,
      "▁وراء": 6432,
      "▁benef": 6433,
      "ائح": 6434,
      "▁behav": 6435,
      "▁تونس": 6436,
      "▁announ": 6437,
      "▁قض": 6438,
      "▁performance": 6439,
      "▁idea": 6440,
      "▁walk": 6441,
      "▁حكومة": 6442,
      "▁أوروبا": 6443,
      "aign": 6444,
      "▁الدورة": 6445,
      "لاج": 6446,
      "▁معت": 6447,
      "▁يقال": 6448,
      "ports": 6449,
      "▁charg": 6450,
      "atural": 6451,
      "وو": 6452,
      "▁مطاحن": 6453,
      "▁eval": 6454,
      "يراني": 6455,
      "▁Sup": 6456,
      "▁كلية": 6457,
      "▁النب": 6458,
      "▁تحمل": 6459,
      "▁quick": 6460,
      "▁ينبغي": 6461,
      "▁البخ": 6462,
      "▁الارض": 6463,
      "▁bring": 6464,
      "هرجان": 6465,
      "Type": 6466,
      "sigma": 6467,
      "طرة": 6468,
      "▁performed": 6469,
      "▁حمد": 6470,
      "▁protein": 6471,
      "see": 6472,
      "▁الإنتاج": 6473,
      "▁السابقة": 6474,
      "جين": 6475,
      "▁factor": 6476,
      "date": 6477,
      "▁كف": 6478,
      "▁saw": 6479,
      "▁sett": 6480,
      "▁فعلا": 6481,
      "▁الأمريكي": 6482,
      "▁البلا": 6483,
      "come": 6484,
      "▁General": 6485,
      "▁اك": 6486,
      "▁paper": 6487,
      "▁multiple": 6488,
      "▁العلماء": 6489,
      "uary": 6490,
      "ويم": 6491,
      "َه": 6492,
      "▁production": 6493,
      "يفا": 6494,
      "▁foot": 6495,
      "▁needs": 6496,
      "▁للر": 6497,
      "▁assess": 6498,
      "▁correspond": 6499,
      "IP": 6500,
      "▁الفيديو": 6501,
      "▁film": 6502,
      "▁الكبرى": 6503,
      "▁كلا": 6504,
      "▁بحر": 6505,
      "erc": 6506,
      "▁detect": 6507,
      "▁لانه": 6508,
      "▁بطولة": 6509,
      "▁outside": 6510,
      "▁material": 6511,
      "▁العسكرية": 6512,
      "ogen": 6513,
      "▁الرسمية": 6514,
      "▁وصول": 6515,
      "ender": 6516,
      "▁الجنوب": 6517,
      "▁حف": 6518,
      "▁visit": 6519,
      "خراج": 6520,
      "overed": 6521,
      "▁مرح": 6522,
      "OC": 6523,
      "%)": 6524,
      "▁contact": 6525,
      "▁زمن": 6526,
      "▁الوزارة": 6527,
      "uel": 6528,
      "▁/*": 6529,
      "▁لون": 6530,
      "gl": 6531,
      "▁والمن": 6532,
      "ulated": 6533,
      "▁واض": 6534,
      "حرير": 6535,
      "▁Here": 6536,
      "▁install": 6537,
      "▁mut": 6538,
      "▁اخي": 6539,
      "uration": 6540,
      "▁population": 6541,
      "▁الحكومية": 6542,
      "▁share": 6543,
      "raft": 6544,
      "▁Im": 6545,
      "▁البحرينية": 6546,
      "▁أيضًا": 6547,
      "▁Just": 6548,
      "▁الاولى": 6549,
      "▁دوري": 6550,
      "ences": 6551,
      "غرب": 6552,
      "▁concent": 6553,
      "umb": 6554,
      "▁Get": 6555,
      "▁بالفيديو": 6556,
      "bib": 6557,
      "▁سعود": 6558,
      "▁المكان": 6559,
      "▁فرق": 6560,
      "▁هذي": 6561,
      "▁واعت": 6562,
      "▁answ": 6563,
      "َال": 6564,
      "uments": 6565,
      "AA": 6566,
      "lam": 6567,
      "rec": 6568,
      "▁relationship": 6569,
      "▁office": 6570,
      "▁وكيف": 6571,
      "▁recogn": 6572,
      "▁الاقتصادي": 6573,
      "▁Def": 6574,
      "▁mother": 6575,
      "▁لين": 6576,
      "▁الثنائية": 6577,
      "ياط": 6578,
      "▁لمع": 6579,
      "▁ضبط": 6580,
      "▁ST": 6581,
      "شات": 6582,
      "▁sold": 6583,
      "▁الإسلامي": 6584,
      "▁وتأ": 6585,
      "eration": 6586,
      "▁مباد": 6587,
      "▁التجارة": 6588,
      "▁الاعلام": 6589,
      "▁الجمهورية": 6590,
      "الص": 6591,
      "▁lost": 6592,
      "▁المعا": 6593,
      "▁الشخصية": 6594,
      "▁ريم": 6595,
      "ny": 6596,
      "▁Ob": 6597,
      "▁girl": 6598,
      "▁المدر": 6599,
      "▁بدء": 6600,
      "وند": 6601,
      "جارة": 6602,
      "▁فكية": 6603,
      "▁strateg": 6604,
      "▁مهما": 6605,
      "▁ang": 6606,
      "▁عثمان": 6607,
      "حافظة": 6608,
      "▁ايام": 6609,
      "▁device": 6610,
      "يال": 6611,
      "▁consist": 6612,
      "جاوز": 6613,
      "\")": 6614,
      "▁مناف": 6615,
      "▁fight": 6616,
      "▁ground": 6617,
      "▁الاحتلال": 6618,
      "oved": 6619,
      "▁spect": 6620,
      "▁الحرم": 6621,
      "▁OF": 6622,
      "ties": 6623,
      "▁Dr": 6624,
      "▁قامت": 6625,
      "mission": 6626,
      "comp": 6627,
      "▁شيخ": 6628,
      "جابة": 6629,
      "لاه": 6630,
      "منة": 6631,
      "▁ناس": 6632,
      "▁ومش": 6633,
      "▁involved": 6634,
      "▁مشكلة": 6635,
      "▁يستطيع": 6636,
      "▁عامة": 6637,
      "Id": 6638,
      "ashington": 6639,
      "▁leaders": 6640,
      "نم": 6641,
      "▁الحدود": 6642,
      "▁قدرة": 6643,
      "▁ی": 6644,
      "▁غزة": 6645,
      "▁demonstr": 6646,
      "▁الغاز": 6647,
      "▁solution": 6648,
      "▁الكر": 6649,
      "▁dead": 6650,
      "▁مواد": 6651,
      "▁إست": 6652,
      "▁مقتل": 6653,
      "َنْ": 6654,
      "▁رو": 6655,
      "ext": 6656,
      "rench": 6657,
      "فعة": 6658,
      "▁Group": 6659,
      "ii": 6660,
      "▁الفني": 6661,
      "▁قضية": 6662,
      "▁stay": 6663,
      "▁واله": 6664,
      "▁عط": 6665,
      "ۇر": 6666,
      "▁المجموعة": 6667,
      "كب": 6668,
      "▁alleg": 6669,
      "umber": 6670,
      "وافق": 6671,
      "▁limit": 6672,
      "▁application": 6673,
      "▁weeks": 6674,
      "▁err": 6675,
      "ابقة": 6676,
      "▁سيتم": 6677,
      "▁معد": 6678,
      "▁ليش": 6679,
      "▁مصانع": 6680,
      "▁زين": 6681,
      "▁أخبرنا": 6682,
      "▁AP": 6683,
      "▁bank": 6684,
      "▁بارك": 6685,
      "▁Sch": 6686,
      "▁probably": 6687,
      "ensity": 6688,
      "▁mach": 6689,
      "ظمات": 6690,
      "▁Sunday": 6691,
      "▁Sm": 6692,
      "▁الحوار": 6693,
      "▁غر": 6694,
      "▁العلوم": 6695,
      "▁UN": 6696,
      "▁conv": 6697,
      "vant": 6698,
      "▁English": 6699,
      "▁تحدث": 6700,
      "▁areas": 6701,
      "▁additional": 6702,
      "wise": 6703,
      "▁طف": 6704,
      "▁العدد": 6705,
      "كاديم": 6706,
      "zy": 6707,
      "▁القسم": 6708,
      "▁أونلاين": 6709,
      "▁مجرد": 6710,
      "lin": 6711,
      "قديم": 6712,
      "this": 6713,
      "حظ": 6714,
      "▁(*": 6715,
      "▁المفت": 6716,
      "▁ورب": 6717,
      "arter": 6718,
      "▁قالوا": 6719,
      "▁تناول": 6720,
      "▁appear": 6721,
      "semb": 6722,
      "واني": 6723,
      "وليد": 6724,
      "▁التداول": 6725,
      "ufact": 6726,
      "▁إي": 6727,
      "ares": 6728,
      "▁West": 6729,
      "▁بغداد": 6730,
      "▁منظمة": 6731,
      "▁صلاة": 6732,
      "▁flu": 6733,
      "▁itself": 6734,
      "▁introdu": 6735,
      "▁obtained": 6736,
      "▁فرض": 6737,
      "▁shall": 6738,
      "where": 6739,
      "بيقات": 6740,
      "▁الوجه": 6741,
      "ospital": 6742,
      "▁مؤسسة": 6743,
      "▁البريد": 6744,
      "pri": 6745,
      "▁pan": 6746,
      "▁contr": 6747,
      "▁العرض": 6748,
      "▁vot": 6749,
      "▁المسلم": 6750,
      "▁حبي": 6751,
      "atives": 6752,
      "▁حوالي": 6753,
      "▁comes": 6754,
      "▁الحجارة": 6755,
      "غاء": 6756,
      "▁موقف": 6757,
      "▁بيانات": 6758,
      "▁Austral": 6759,
      "▁إيج": 6760,
      "▁الاشت": 6761,
      "▁ويش": 6762,
      "▁الهدف": 6763,
      "▁الديمق": 6764,
      "فادة": 6765,
      "aul": 6766,
      "▁whose": 6767,
      "ندق": 6768,
      "ledge": 6769,
      "▁والان": 6770,
      "لفزي": 6771,
      "▁companies": 6772,
      "▁official": 6773,
      "▁الكتب": 6774,
      "▁white": 6775,
      "▁killed": 6776,
      "على": 6777,
      "▁يدخل": 6778,
      "▁estim": 6779,
      "عن": 6780,
      "▁الطبية": 6781,
      "rim": 6782,
      "▁سعودي": 6783,
      "▁جدة": 6784,
      "رهاب": 6785,
      "وقات": 6786,
      "نوات": 6787,
      "▁search": 6788,
      "▁decre": 6789,
      "No": 6790,
      "ُل": 6791,
      "▁مشيرا": 6792,
      "sqrt": 6793,
      "▁especially": 6794,
      "▁التعامل": 6795,
      "هو": 6796,
      "يزيا": 6797,
      "▁ماكينة": 6798,
      "▁hope": 6799,
      "▁someone": 6800,
      "▁تكن": 6801,
      "oms": 6802,
      "ارئ": 6803,
      "iam": 6804,
      "▁necessary": 6805,
      "airs": 6806,
      "▁ولن": 6807,
      "▁أنهم": 6808,
      "خفاض": 6809,
      "▁ند": 6810,
      "down": 6811,
      "▁الموج": 6812,
      "▁string": 6813,
      "▁حبيب": 6814,
      "▁seems": 6815,
      "فال": 6816,
      "▁hot": 6817,
      "▁dire": 6818,
      "ّر": 6819,
      "▁الأمور": 6820,
      "▁حالات": 6821,
      "▁بدأ": 6822,
      "▁ابي": 6823,
      "▁فم": 6824,
      "verse": 6825,
      "▁سلمان": 6826,
      "bor": 6827,
      "▁اهل": 6828,
      "▁الصاد": 6829,
      "يص": 6830,
      "▁الشرقية": 6831,
      "▁امس": 6832,
      "▁طبيعي": 6833,
      "▁member": 6834,
      "نسيق": 6835,
      "▁نست": 6836,
      "▁products": 6837,
      "class": 6838,
      "صرية": 6839,
      "▁وار": 6840,
      "}{\\": 6841,
      "▁بلاد": 6842,
      "▁الاجتماع": 6843,
      "▁مرات": 6844,
      "نمية": 6845,
      "▁European": 6846,
      "▁المحكمة": 6847,
      "▁pain": 6848,
      "ises": 6849,
      "PR": 6850,
      "▁تدري": 6851,
      "قوط": 6852,
      "▁International": 6853,
      "▁وقع": 6854,
      "▁ضرورة": 6855,
      "▁منتخب": 6856,
      "▁>>": 6857,
      "▁الالكتر": 6858,
      "بيعات": 6859,
      "▁ball": 6860,
      "aled": 6861,
      "▁زيت": 6862,
      "▁الأوسط": 6863,
      "لو": 6864,
      "▁cred": 6865,
      "urch": 6866,
      "▁معرض": 6867,
      "ورو": 6868,
      "uge": 6869,
      "▁ملم": 6870,
      "▁كهرب": 6871,
      "ban": 6872,
      "▁مقا": 6873,
      "بادل": 6874,
      "▁Our": 6875,
      "قالة": 6876,
      "▁الرسول": 6877,
      "▁صاد": 6878,
      "▁جا": 6879,
      "▁ens": 6880,
      "ْل": 6881,
      "يكية": 6882,
      "▁چ": 6883,
      "▁defin": 6884,
      "oon": 6885,
      "▁المنش": 6886,
      "هاجم": 6887,
      "▁influ": 6888,
      "▁عقب": 6889,
      "▁السورية": 6890,
      "SI": 6891,
      "فذ": 6892,
      "ners": 6893,
      "▁عف": 6894,
      "دو": 6895,
      "▁لمس": 6896,
      "▁rev": 6897,
      "حميل": 6898,
      "خم": 6899,
      "▁الروح": 6900,
      "خطيط": 6901,
      "▁نصر": 6902,
      "كندر": 6903,
      "▁بالرياض": 6904,
      "ذيب": 6905,
      "▁اون": 6906,
      "▁بسم": 6907,
      "▁تغير": 6908,
      "></": 6909,
      "▁subst": 6910,
      "ّه": 6911,
      "mathrm": 6912,
      "ites": 6913,
      "▁الأساسية": 6914,
      "ements": 6915,
      "▁المجال": 6916,
      "▁الخيارات": 6917,
      "▁الغربية": 6918,
      "دافع": 6919,
      "▁eyes": 6920,
      "gamma": 6921,
      "cember": 6922,
      "▁campaign": 6923,
      "▁deg": 6924,
      "ounded": 6925,
      "sk": 6926,
      "▁خس": 6927,
      "▁بري": 6928,
      "rial": 6929,
      "▁ألمانيا": 6930,
      "▁recomm": 6931,
      "▁financial": 6932,
      "▁وفقا": 6933,
      "▁شأن": 6934,
      "▁الحمل": 6935,
      "ديدا": 6936,
      "▁موجود": 6937,
      "▁الطلاب": 6938,
      "علانات": 6939,
      "▁dat": 6940,
      "داية": 6941,
      "▁مادة": 6942,
      "▁المعادن": 6943,
      "▁موعد": 6944,
      "▁وقف": 6945,
      "▁pret": 6946,
      "▁المقد": 6947,
      "▁جميعا": 6948,
      "▁Since": 6949,
      "▁friend": 6950,
      "▁cancer": 6951,
      "عددة": 6952,
      "miss": 6953,
      "▁السعوديه": 6954,
      "pite": 6955,
      "▁وابن": 6956,
      "▁$$": 6957,
      "▁أصبح": 6958,
      "▁مكة": 6959,
      "▁الني": 6960,
      "▁الصحيح": 6961,
      "▁adj": 6962,
      "▁II": 6963,
      "urg": 6964,
      "ram": 6965,
      "pose": 6966,
      "مش": 6967,
      "▁طويلة": 6968,
      "▁Inc": 6969,
      "▁أبا": 6970,
      "▁card": 6971,
      "▁Sen": 6972,
      "▁العلاج": 6973,
      "▁فهد": 6974,
      "▁tal": 6975,
      "▁average": 6976,
      "▁son": 6977,
      "▁رؤية": 6978,
      "▁صحة": 6979,
      "▁continue": 6980,
      "▁led": 6981,
      "▁Democr": 6982,
      "▁ثاني": 6983,
      "▁fell": 6984,
      "▁sem": 6985,
      "▁معها": 6986,
      "isf": 6987,
      "▁جيد": 6988,
      "men": 6989,
      "▁اسرائيل": 6990,
      "تميز": 6991,
      "▁بى": 6992,
      "▁تسوق": 6993,
      "▁everything": 6994,
      "▁يستخدم": 6995,
      "▁length": 6996,
      "▁personal": 6997,
      "▁instead": 6998,
      "▁الجودة": 6999,
      "▁simple": 7000,
      "hel": 7001,
      "▁لجميع": 7002,
      "▁كريم": 7003,
      "▁وتص": 7004,
      "▁مدريد": 7005,
      "▁سام": 7006,
      "▁الدستور": 7007,
      "▁دقيقة": 7008,
      "▁weight": 7009,
      "▁صدر": 7010,
      "كانية": 7011,
      "▁ايران": 7012,
      "عاء": 7013,
      "▁threat": 7014,
      "▁heav": 7015,
      "▁للمر": 7016,
      "▁word": 7017,
      "▁became": 7018,
      "زالة": 7019,
      "$-": 7020,
      "َس": 7021,
      "▁فكان": 7022,
      "تش": 7023,
      "▁بنك": 7024,
      "▁title": 7025,
      "And": 7026,
      "▁building": 7027,
      "ونها": 7028,
      "aker": 7029,
      "▁البلدان": 7030,
      "▁video": 7031,
      "etic": 7032,
      "▁حدود": 7033,
      "▁ذي": 7034,
      "reng": 7035,
      "▁مبارك": 7036,
      "▁والسلام": 7037,
      "▁مباريات": 7038,
      "▁music": 7039,
      "▁document": 7040,
      "▁التقرير": 7041,
      "طوانة": 7042,
      "▁woman": 7043,
      "▁الاستثمار": 7044,
      "▁ess": 7045,
      "▁appl": 7046,
      "▁consum": 7047,
      "▁يعطيك": 7048,
      "▁Washington": 7049,
      "ْن": 7050,
      "▁via": 7051,
      "▁pressure": 7052,
      "inks": 7053,
      "▁immedi": 7054,
      "▁مميز": 7055,
      "▁January": 7056,
      "▁lines": 7057,
      "cript": 7058,
      "▁صندوق": 7059,
      "▁الزمن": 7060,
      "ئول": 7061,
      "▁§": 7062,
      "▁تمر": 7063,
      "▁emb": 7064,
      "▁المي": 7065,
      "▁الساح": 7066,
      "قوم": 7067,
      "▁gave": 7068,
      "▁العلمي": 7069,
      "▁games": 7070,
      "▁remain": 7071,
      "▁الأسهم": 7072,
      "▁webs": 7073,
      "▁quality": 7074,
      "يريا": 7075,
      "like": 7076,
      "▁match": 7077,
      "▁عزيز": 7078,
      "▁town": 7079,
      "▁تدخل": 7080,
      "▁بدأت": 7081,
      "راقبة": 7082,
      "وطن": 7083,
      "ريحات": 7084,
      "▁الآية": 7085,
      "▁بالر": 7086,
      "string": 7087,
      "▁الوس": 7088,
      "file": 7089,
      "▁والتعليم": 7090,
      "▁زا": 7091,
      "ocal": 7092,
      "▁معك": 7093,
      "▁creat": 7094,
      "▁الشاعر": 7095,
      "ارسة": 7096,
      "كور": 7097,
      "String": 7098,
      "log": 7099,
      "▁La": 7100,
      "▁defined": 7101,
      "▁thus": 7102,
      "▁players": 7103,
      "▁معرفة": 7104,
      "يوم": 7105,
      "inding": 7106,
      "▁الجنة": 7107,
      "▁التفاصيل": 7108,
      "▁vo": 7109,
      "يادات": 7110,
      "▁الفوز": 7111,
      "صلحة": 7112,
      "▁foreign": 7113,
      "▁Reg": 7114,
      "▁father": 7115,
      "▁مصطفى": 7116,
      "▁إف": 7117,
      "شاط": 7118,
      "fered": 7119,
      "▁والل": 7120,
      "gif": 7121,
      "hic": 7122,
      "▁First": 7123,
      "▁غال": 7124,
      "راث": 7125,
      "uth": 7126,
      "change": 7127,
      "▁ربي": 7128,
      "▁inside": 7129,
      "وفق": 7130,
      "▁فج": 7131,
      "])": 7132,
      "atively": 7133,
      "زى": 7134,
      "▁soon": 7135,
      "▁العلمية": 7136,
      "▁cand": 7137,
      "▁الامر": 7138,
      "big": 7139,
      "اربة": 7140,
      "كرم": 7141,
      "▁page": 7142,
      "estern": 7143,
      "ضرب": 7144,
      "▁صحي": 7145,
      "▁اللاعبين": 7146,
      "▁مقت": 7147,
      "▁وفاة": 7148,
      "▁ارض": 7149,
      "ساس": 7150,
      "▁difference": 7151,
      "▁إع": 7152,
      "▁وأنا": 7153,
      "▁الكاتب": 7154,
      "▁coming": 7155,
      "▁قلوب": 7156,
      "▁stop": 7157,
      "▁السلطات": 7158,
      "ields": 7159,
      "erve": 7160,
      "▁نجاح": 7161,
      "ثق": 7162,
      "حرم": 7163,
      "▁الأسمنت": 7164,
      "▁December": 7165,
      "▁تويتر": 7166,
      "▁wait": 7167,
      "يمين": 7168,
      "iqu": 7169,
      "▁الرم": 7170,
      "▁respectively": 7171,
      "زاب": 7172,
      "يفه": 7173,
      "▁stra": 7174,
      "▁index": 7175,
      "ساد": 7176,
      "comes": 7177,
      "▁بحيث": 7178,
      "dro": 7179,
      "▁الرياضية": 7180,
      "▁كنا": 7181,
      "rote": 7182,
      "▁hit": 7183,
      "ned": 7184,
      "▁proced": 7185,
      "▁جاه": 7186,
      "▁focus": 7187,
      "▁Kore": 7188,
      "▁سما": 7189,
      "▁track": 7190,
      "▁students": 7191,
      "▁واضح": 7192,
      "▁سبحانه": 7193,
      ")*": 7194,
      "oe": 7195,
      "▁running": 7196,
      "▁توقع": 7197,
      "لمه": 7198,
      "▁flow": 7199,
      "ferences": 7200,
      "aging": 7201,
      "▁واص": 7202,
      "ابلة": 7203,
      "سيق": 7204,
      "rho": 7205,
      "arc": 7206,
      "▁impact": 7207,
      "▁micro": 7208,
      "▁----": 7209,
      "▁عبارة": 7210,
      "رسانة": 7211,
      "ماً": 7212,
      "نيات": 7213,
      "▁إجراء": 7214,
      "▁قيل": 7215,
      "▁تشغيل": 7216,
      "▁سبق": 7217,
      "▁reve": 7218,
      "لائ": 7219,
      "▁البرامج": 7220,
      "▁الجهات": 7221,
      "▁questions": 7222,
      "▁اط": 7223,
      "▁النواب": 7224,
      "ينيا": 7225,
      "▁شبه": 7226,
      "aged": 7227,
      "▁مهمة": 7228,
      "xi": 7229,
      "▁الجد": 7230,
      "▁التالي": 7231,
      "▁longer": 7232,
      "▁الخامس": 7233,
      "ado": 7234,
      "▁سالم": 7235,
      "▁gas": 7236,
      "▁therefore": 7237,
      "▁المسجد": 7238,
      "▁الحزب": 7239,
      "▁ثابت": 7240,
      "ste": 7241,
      "رية": 7242,
      "▁الروس": 7243,
      "▁روى": 7244,
      "أم": 7245,
      "▁vs": 7246,
      "▁global": 7247,
      "▁رش": 7248,
      "▁التك": 7249,
      "▁البار": 7250,
      "▁العقل": 7251,
      "tt": 7252,
      "▁عربية": 7253,
      "▁حماية": 7254,
      "▁الأردن": 7255,
      "▁calcul": 7256,
      "▁\\\\": 7257,
      "andom": 7258,
      "lig": 7259,
      "▁Committee": 7260,
      "▁المكت": 7261,
      "▁يلي": 7262,
      "▁princ": 7263,
      "▁يعود": 7264,
      "ronic": 7265,
      "باق": 7266,
      "▁تابع": 7267,
      "ّل": 7268,
      "▁constit": 7269,
      "dom": 7270,
      "▁الأعضاء": 7271,
      "▁البرا": 7272,
      "▁tool": 7273,
      "iber": 7274,
      "▁display": 7275,
      "*,": 7276,
      "▁يحمل": 7277,
      "▁المذك": 7278,
      "^\\": 7279,
      "▁Council": 7280,
      "▁المرور": 7281,
      "▁training": 7282,
      "▁sense": 7283,
      "+\\": 7284,
      "▁عاجل": 7285,
      "▁significantly": 7286,
      "عدام": 7287,
      "▁prevent": 7288,
      "▁إطلاق": 7289,
      "▁طا": 7290,
      "more": 7291,
      "▁Satur": 7292,
      "▁Mark": 7293,
      "▁سياسة": 7294,
      "بره": 7295,
      "▁هن": 7296,
      "ومية": 7297,
      "▁lack": 7298,
      "سيا": 7299,
      "▁يحب": 7300,
      "▁ويست": 7301,
      "▁الحال": 7302,
      "elling": 7303,
      "▁die": 7304,
      "▁طل": 7305,
      "ternal": 7306,
      "▁الأعلى": 7307,
      "------------": 7308,
      "▁الكون": 7309,
      "▁بنها": 7310,
      "زات": 7311,
      "▁الفنية": 7312,
      "▁leave": 7313,
      "ham": 7314,
      "▁الرسمي": 7315,
      "isions": 7316,
      "ارضة": 7317,
      "▁predict": 7318,
      "▁earlier": 7319,
      "▁Cong": 7320,
      "▁cat": 7321,
      "top": 7322,
      "▁$(": 7323,
      "▁knew": 7324,
      "وسطة": 7325,
      "▁events": 7326,
      "▁quite": 7327,
      "inese": 7328,
      "▁ابدا": 7329,
      "▁Arab": 7330,
      "ovember": 7331,
      "astic": 7332,
      "▁According": 7333,
      "▁الحركة": 7334,
      "▁September": 7335,
      "▁وقيل": 7336,
      "▁forward": 7337,
      "▁looked": 7338,
      "▁سك": 7339,
      "وردين": 7340,
      "▁وأوضح": 7341,
      "▁pattern": 7342,
      "▁العهد": 7343,
      "جح": 7344,
      "▁original": 7345,
      "▁print": 7346,
      "Val": 7347,
      "▁style": 7348,
      "▁مرو": 7349,
      "واح": 7350,
      "عامل": 7351,
      "▁كانون": 7352,
      "احث": 7353,
      "▁لعام": 7354,
      "▁ورو": 7355,
      "▁civil": 7356,
      "▁situation": 7357,
      "ضير": 7358,
      "▁مول": 7359,
      "عدد": 7360,
      "▁الارت": 7361,
      "▁داعش": 7362,
      "▁شمس": 7363,
      "▁pie": 7364,
      "▁exact": 7365,
      "mbol": 7366,
      "▁From": 7367,
      "▁Nations": 7368,
      "▁السماء": 7369,
      "istry": 7370,
      "مالك": 7371,
      "▁التغ": 7372,
      "▁أين": 7373,
      "▁العملات": 7374,
      "▁تعريف": 7375,
      "▁بز": 7376,
      "سمع": 7377,
      "▁color": 7378,
      "▁Ang": 7379,
      "IF": 7380,
      "▁communic": 7381,
      "SE": 7382,
      "▁online": 7383,
      "▁Although": 7384,
      "▁الأغ": 7385,
      "▁methods": 7386,
      "▁turned": 7387,
      "▁حاول": 7388,
      "▁الشاشة": 7389,
      "era": 7390,
      "▁المحلي": 7391,
      "UN": 7392,
      "قاد": 7393,
      "▁Minister": 7394,
      "▁مشاكل": 7395,
      "▁طبعا": 7396,
      "نساء": 7397,
      "ورى": 7398,
      "▁broad": 7399,
      "▁surv": 7400,
      "▁المتنقلة": 7401,
      "atus": 7402,
      "▁tried": 7403,
      "▁August": 7404,
      "▁متوسط": 7405,
      "▁رواه": 7406,
      "َك": 7407,
      "راءات": 7408,
      "▁assum": 7409,
      "▁عبيد": 7410,
      "▁News": 7411,
      "▁patient": 7412,
      "▁الرغم": 7413,
      "ظفين": 7414,
      "▁الحقوق": 7415,
      "],[@": 7416,
      "وسة": 7417,
      "▁جهود": 7418,
      "صيل": 7419,
      "▁Saturday": 7420,
      "▁ميز": 7421,
      "▁التسجيل": 7422,
      "ocks": 7423,
      "▁squ": 7424,
      "ثال": 7425,
      "▁emer": 7426,
      "▁Int": 7427,
      "▁bir": 7428,
      "odes": 7429,
      "▁dollars": 7430,
      "شان": 7431,
      "value": 7432,
      "▁انتاج": 7433,
      "size": 7434,
      "▁increasing": 7435,
      "▁المباد": 7436,
      "زاء": 7437,
      "▁الدراسة": 7438,
      "SC": 7439,
      "يدان": 7440,
      "▁eight": 7441,
      "▁![": 7442,
      "▁=>": 7443,
      "▁agreement": 7444,
      "▁ميل": 7445,
      "حك": 7446,
      "▁wrong": 7447,
      "isl": 7448,
      "▁دينار": 7449,
      "iers": 7450,
      "▁und": 7451,
      "▁الجنس": 7452,
      "▁الاسم": 7453,
      "▁المائ": 7454,
      "▁ثالث": 7455,
      "▁إرسال": 7456,
      "▁العسكري": 7457,
      "ulations": 7458,
      "ournal": 7459,
      "ابا": 7460,
      "قس": 7461,
      "▁المواقع": 7462,
      "▁ren": 7463,
      "▁gra": 7464,
      "▁British": 7465,
      "وته": 7466,
      "TR": 7467,
      "rief": 7468,
      "▁مصن": 7469,
      "▁po": 7470,
      "▁ــ": 7471,
      "▁بحسب": 7472,
      "▁داود": 7473,
      "▁الكهرباء": 7474,
      "رانيت": 7475,
      "▁خز": 7476,
      "▁رف": 7477,
      "▁هام": 7478,
      "▁اللازمة": 7479,
      "▁فات": 7480,
      "▁فرصة": 7481,
      "▁Em": 7482,
      "جون": 7483,
      "شام": 7484,
      "▁پ": 7485,
      "cast": 7486,
      "رائم": 7487,
      "▁والز": 7488,
      "▁نقاط": 7489,
      "▁يقت": 7490,
      "جمالي": 7491,
      "وزارة": 7492,
      "▁&&": 7493,
      "▁reb": 7494,
      "▁October": 7495,
      "▁وبر": 7496,
      "▁ئە": 7497,
      "▁برج": 7498,
      "ناول": 7499,
      "▁اختي": 7500,
      "Figure": 7501,
      "bt": 7502,
      "▁قرب": 7503,
      "▁الفرنسي": 7504,
      "▁مرحلة": 7505,
      "▁Mich": 7506,
      "▁تعديل": 7507,
      "▁ملت": 7508,
      "▁opportun": 7509,
      "▁تشكيل": 7510,
      "▁النمو": 7511,
      "▁رائع": 7512,
      "▁العص": 7513,
      "▁مجه": 7514,
      "▁الشعبي": 7515,
      "▁ثانية": 7516,
      "▁wall": 7517,
      "▁prep": 7518,
      "▁حقيقة": 7519,
      "▁للحصول": 7520,
      "▁الإلكترونية": 7521,
      "▁release": 7522,
      "▁الأشخاص": 7523,
      "▁simply": 7524,
      "▁بريط": 7525,
      "▁Thus": 7526,
      "▁يبدو": 7527,
      "▁November": 7528,
      "▁features": 7529,
      "قلة": 7530,
      "ياسات": 7531,
      "eps": 7532,
      "▁watch": 7533,
      "▁أجهزة": 7534,
      "SD": 7535,
      "attle": 7536,
      "▁Her": 7537,
      "ribute": 7538,
      "حتاج": 7539,
      "▁النوم": 7540,
      "جري": 7541,
      "▁date": 7542,
      "▁Red": 7543,
      "istics": 7544,
      "▁Department": 7545,
      "~~": 7546,
      "▁للخ": 7547,
      "pen": 7548,
      "▁وهناك": 7549,
      "▁capital": 7550,
      "▁الحض": 7551,
      "▁وأم": 7552,
      "SP": 7553,
      "▁الحياه": 7554,
      "▁الصباح": 7555,
      "▁French": 7556,
      "▁حلم": 7557,
      "▁كش": 7558,
      "▁آلاف": 7559,
      "▁المستخدم": 7560,
      "hood": 7561,
      "okes": 7562,
      "▁اسمه": 7563,
      "▁يرت": 7564,
      "▁حرف": 7565,
      "Ar": 7566,
      "nu": 7567,
      "▁أخر": 7568,
      "▁سكان": 7569,
      "idge": 7570,
      "▁منصور": 7571,
      "▁التابعة": 7572,
      "ouch": 7573,
      "▁المؤسسات": 7574,
      "▁road": 7575,
      "▁نه": 7576,
      "▁يؤدي": 7577,
      "غاية": 7578,
      "مائة": 7579,
      "delta": 7580,
      "▁الأهلي": 7581,
      "▁تمام": 7582,
      "▁مدرب": 7583,
      "icon": 7584,
      "▁صل": 7585,
      "▁لاين": 7586,
      "ُوا": 7587,
      "▁تجد": 7588,
      "بى": 7589,
      "عمة": 7590,
      "▁أعلن": 7591,
      "cretary": 7592,
      "▁البا": 7593,
      "▁الست": 7594,
      "ributed": 7595,
      "▁أسباب": 7596,
      "▁Mus": 7597,
      "▁moved": 7598,
      "▁الأوروبي": 7599,
      "▁serious": 7600,
      "▁أربع": 7601,
      "▁حا": 7602,
      "arily": 7603,
      "▁motion": 7604,
      "▁الوج": 7605,
      "ico": 7606,
      "▁لكنه": 7607,
      "////": 7608,
      "▁complete": 7609,
      "▁بتاريخ": 7610,
      "▁امن": 7611,
      "▁فهذا": 7612,
      "طلاع": 7613,
      "itude": 7614,
      "▁تشرين": 7615,
      "▁deep": 7616,
      "ulf": 7617,
      "▁streng": 7618,
      "▁لأنها": 7619,
      "anger": 7620,
      "▁\r": 7621,
      "▁mer": 7622,
      "▁دمشق": 7623,
      "▁Dis": 7624,
      "▁مظ": 7625,
      "▁الثورة": 7626,
      "▁language": 7627,
      "▁ومست": 7628,
      "▁initial": 7629,
      "OW": 7630,
      "▁سأ": 7631,
      "▁presence": 7632,
      "▁followed": 7633,
      "▁طرف": 7634,
      "▁medical": 7635,
      "ركاته": 7636,
      "▁memory": 7637,
      "▁ماء": 7638,
      "▁ir": 7639,
      "▁عيسى": 7640,
      "sl": 7641,
      "aving": 7642,
      "باً": 7643,
      "▁بوابة": 7644,
      "▁الأج": 7645,
      "صدر": 7646,
      "▁الحيوان": 7647,
      "▁أهداف": 7648,
      "▁التالية": 7649,
      "▁ليلة": 7650,
      "oura": 7651,
      "▁قيام": 7652,
      "ming": 7653,
      "▁تستطيع": 7654,
      "▁الاخر": 7655,
      "▁الطعام": 7656,
      "غى": 7657,
      "▁مواجهة": 7658,
      "▁ربنا": 7659,
      "▁والاج": 7660,
      "▁والآ": 7661,
      "صنع": 7662,
      "▁وأس": 7663,
      "▁Bank": 7664,
      "ناف": 7665,
      "▁فح": 7666,
      "▁ومر": 7667,
      "▁المبا": 7668,
      "▁توص": 7669,
      "struct": 7670,
      "▁التنفيذ": 7671,
      "▁load": 7672,
      "لكم": 7673,
      "▁Chinese": 7674,
      "▁الوزير": 7675,
      "▁البشرية": 7676,
      "earch": 7677,
      "سبق": 7678,
      "icense": 7679,
      "▁وو": 7680,
      "▁effective": 7681,
      "TC": 7682,
      "▁tum": 7683,
      "▁وأخ": 7684,
      "▁وعم": 7685,
      "But": 7686,
      "▁توجد": 7687,
      "شنطن": 7688,
      "▁particularly": 7689,
      "▁hands": 7690,
      "▁accom": 7691,
      "▁ليه": 7692,
      "▁عنهم": 7693,
      "▁Che": 7694,
      "▁الأر": 7695,
      "ندية": 7696,
      "▁أصل": 7697,
      "itation": 7698,
      "▁easy": 7699,
      "▁provides": 7700,
      "▁أعلنت": 7701,
      "▁الأمنية": 7702,
      "▁CD": 7703,
      "▁بالل": 7704,
      "box": 7705,
      "فن": 7706,
      "▁industry": 7707,
      "times": 7708,
      "▁جماعة": 7709,
      "▁وهل": 7710,
      "▁شهادة": 7711,
      "▁هد": 7712,
      "▁false": 7713,
      "aily": 7714,
      "▁ئۇ": 7715,
      "▁static": 7716,
      "راجعة": 7717,
      "وذ": 7718,
      "ynam": 7719,
      "▁القائمة": 7720,
      "▁جعفر": 7721,
      "▁حاجة": 7722,
      "▁غسل": 7723,
      "▁indu": 7724,
      "▁ضوء": 7725,
      "▁لخ": 7726,
      "▁شروط": 7727,
      "▁المدارس": 7728,
      "راحه": 7729,
      "▁sal": 7730,
      "▁themselves": 7731,
      "فد": 7732,
      "▁ويد": 7733,
      "▁distribution": 7734,
      "ناسبة": 7735,
      "▁رأي": 7736,
      "▁tro": 7737,
      "thread": 7738,
      "▁ge": 7739,
      "▁نشاط": 7740,
      "▁command": 7741,
      "cription": 7742,
      "▁legal": 7743,
      "ياده": 7744,
      "اوز": 7745,
      "obile": 7746,
      "▁اعرف": 7747,
      "mar": 7748,
      "وک": 7749,
      "▁district": 7750,
      "▁offer": 7751,
      "▁execut": 7752,
      "▁aud": 7753,
      "▁federal": 7754,
      "▁fem": 7755,
      "zz": 7756,
      "▁inhib": 7757,
      "كندرية": 7758,
      "▁غرفة": 7759,
      "▁توفر": 7760,
      "annel": 7761,
      "▁ويقول": 7762,
      "▁models": 7763,
      "غت": 7764,
      "▁trade": 7765,
      "vision": 7766,
      "▁vehic": 7767,
      "ويض": 7768,
      "▁اتحاد": 7769,
      "▁Post": 7770,
      "▁article": 7771,
      "▁dim": 7772,
      "▁hor": 7773,
      "▁معهم": 7774,
      "acity": 7775,
      "▁سبحان": 7776,
      "▁بعدها": 7777,
      "زر": 7778,
      "▁MP": 7779,
      "▁إنها": 7780,
      "▁منز": 7781,
      "▁التحالف": 7782,
      "▁مثلا": 7783,
      "▁created": 7784,
      "▁المُ": 7785,
      "▁center": 7786,
      "راس": 7787,
      "▁باعت": 7788,
      "▁وترك": 7789,
      "▁Google": 7790,
      "▁تماما": 7791,
      "yp": 7792,
      "▁الإجراءات": 7793,
      "▁ter": 7794,
      "قلال": 7795,
      "theta": 7796,
      "▁بالخ": 7797,
      "واة": 7798,
      "▁خمسة": 7799,
      "▁pack": 7800,
      "▁ماروک": 7801,
      "Sh": 7802,
      "▁pull": 7803,
      "▁اختلف": 7804,
      "حمه": 7805,
      "▁ظهور": 7806,
      "Cont": 7807,
      "فات": 7808,
      "▁basis": 7809,
      "▁مون": 7810,
      "itions": 7811,
      "▁طرح": 7812,
      "▁reach": 7813,
      "▁مخطط": 7814,
      "ُون": 7815,
      "▁يعيش": 7816,
      "خال": 7817,
      "▁Val": 7818,
      "unk": 7819,
      "▁cook": 7820,
      "▁capt": 7821,
      "xim": 7822,
      "▁compar": 7823,
      "tau": 7824,
      "▁فرص": 7825,
      "dered": 7826,
      "▁الحالة": 7827,
      "▁هى": 7828,
      "رافي": 7829,
      "▁لديه": 7830,
      "انيين": 7831,
      "▁wasn": 7832,
      "▁تقريبا": 7833,
      "▁element": 7834,
      "▁كأن": 7835,
      "List": 7836,
      "▁وأبو": 7837,
      "▁الزواج": 7838,
      "leq": 7839,
      "▁door": 7840,
      "ondon": 7841,
      "▁ماكينات": 7842,
      "▁لذا": 7843,
      "▁اجمل": 7844,
      "▁المنورة": 7845,
      "oul": 7846,
      "درس": 7847,
      "▁Wind": 7848,
      "▁leading": 7849,
      "lease": 7850,
      "▁أداء": 7851,
      "▁بوك": 7852,
      "▁Commission": 7853,
      "▁القادم": 7854,
      "▁اقول": 7855,
      "▁ومح": 7856,
      "▁غريب": 7857,
      "▁ويب": 7858,
      "▁الأمة": 7859,
      "▁favor": 7860,
      "جرى": 7861,
      "▁mis": 7862,
      "▁نموذج": 7863,
      "▁البرلمان": 7864,
      "▁الكلمات": 7865,
      "▁لآ": 7866,
      "نتي": 7867,
      "ختار": 7868,
      "▁عدن": 7869,
      "▁المناسب": 7870,
      "▁فور": 7871,
      "▁Dist": 7872,
      "▁أخي": 7873,
      "▁although": 7874,
      "lege": 7875,
      "inated": 7876,
      "شم": 7877,
      "قتها": 7878,
      "كسر": 7879,
      "▁IS": 7880,
      "▁الابتدا": 7881,
      "▁isn": 7882,
      "▁اخوي": 7883,
      "▁slow": 7884,
      "▁bur": 7885,
      "▁المقبلة": 7886,
      "اتم": 7887,
      "فار": 7888,
      "▁il": 7889,
      "▁natural": 7890,
      "▁تمن": 7891,
      "▁living": 7892,
      "▁rates": 7893,
      "ags": 7894,
      "▁felt": 7895,
      "▁الثقيلة": 7896,
      "▁خطر": 7897,
      "▁الأمين": 7898,
      "itter": 7899,
      "▁draw": 7900,
      "='": 7901,
      "نيع": 7902,
      "▁بعضهم": 7903,
      "▁الجنوبية": 7904,
      "وسي": 7905,
      "▁تجهيز": 7906,
      "▁وبالتالي": 7907,
      "▁screen": 7908,
      "▁الضغط": 7909,
      "▁تساعد": 7910,
      "صري": 7911,
      "▁ونا": 7912,
      "Tr": 7913,
      "▁ياب": 7914,
      "▁الفع": 7915,
      "فهوم": 7916,
      "يلم": 7917,
      "دينه": 7918,
      "▁ولما": 7919,
      "لبة": 7920,
      "وامل": 7921,
      "▁القي": 7922,
      "▁إسماعيل": 7923,
      "▁بالمن": 7924,
      "قعة": 7925,
      "▁https": 7926,
      "▁أربعة": 7927,
      "▁travel": 7928,
      "▁إش": 7929,
      "زاز": 7930,
      "▁central": 7931,
      "▁Net": 7932,
      ")}": 7933,
      "▁AT": 7934,
      "▁منح": 7935,
      "▁aw": 7936,
      "▁بذ": 7937,
      "ously": 7938,
      "▁فيهم": 7939,
      "▁المائة": 7940,
      "ائن": 7941,
      "▁شكر": 7942,
      "▁prec": 7943,
      "اضر": 7944,
      "▁determined": 7945,
      "hol": 7946,
      "▁أعلم": 7947,
      "▁تجاه": 7948,
      "▁الهاتف": 7949,
      "▁فيروس": 7950,
      "▁chem": 7951,
      "▁يساعد": 7952,
      "اعم": 7953,
      "▁mid": 7954,
      "haps": 7955,
      "▁الوزن": 7956,
      "▁جمهورية": 7957,
      "den": 7958,
      "قتصادية": 7959,
      "حاديث": 7960,
      "▁defendant": 7961,
      "▁continu": 7962,
      "omega": 7963,
      "▁du": 7964,
      "vere": 7965,
      "ica": 7966,
      "}}\\": 7967,
      "aves": 7968,
      "حرك": 7969,
      "ara": 7970,
      "▁الزمالك": 7971,
      "▁المؤمنين": 7972,
      "▁الأجن": 7973,
      "▁sn": 7974,
      "▁للمس": 7975,
      "▁شف": 7976,
      "▁الفعل": 7977,
      "كتاب": 7978,
      "▁عال": 7979,
      "▁extra": 7980,
      "قائق": 7981,
      "▁(-": 7982,
      "ille": 7983,
      "▁dro": 7984,
      "▁output": 7985,
      "▁يظهر": 7986,
      "▁les": 7987,
      "▁الرئيسي": 7988,
      "▁written": 7989,
      "▁التخ": 7990,
      "▁recently": 7991,
      "▁عناصر": 7992,
      "▁ومنها": 7993,
      "جليزي": 7994,
      "▁status": 7995,
      "▁هاتف": 7996,
      "▁الفرنسية": 7997,
      "▁فكرة": 7998,
      "▁input": 7999,
      "▁repe": 8000,
      "▁التطبيق": 8001,
      "▁developed": 8002,
      "▁بحق": 8003,
      "rices": 8004,
      "▁forces": 8005,
      "FF": 8006,
      "illed": 8007,
      "▁موض": 8008,
      "▁Palest": 8009,
      "▁Char": 8010,
      "▁مدة": 8011,
      "partial": 8012,
      "▁انهم": 8013,
      "omen": 8014,
      "▁بالغ": 8015,
      "show": 8016,
      "▁كتبت": 8017,
      "يقة": 8018,
      "▁أبرز": 8019,
      "▁Je": 8020,
      "▁تعا": 8021,
      "▁frame": 8022,
      "rupt": 8023,
      "▁San": 8024,
      "لاص": 8025,
      "▁سلطان": 8026,
      "Un": 8027,
      "▁البيئة": 8028,
      "../": 8029,
      "asons": 8030,
      "▁؟؟": 8031,
      "Res": 8032,
      "code": 8033,
      "▁transfer": 8034,
      "▁respond": 8035,
      "صرف": 8036,
      "cial": 8037,
      "▁Further": 8038,
      "ya": 8039,
      "▁Calif": 8040,
      "▁satisf": 8041,
      "كرر": 8042,
      "▁lat": 8043,
      "vey": 8044,
      "clusion": 8045,
      "▁رغ": 8046,
      "▁فوائد": 8047,
      "▁pict": 8048,
      "كمال": 8049,
      "▁الفكر": 8050,
      "▁اللغ": 8051,
      "▁البيع": 8052,
      "سس": 8053,
      "▁أثر": 8054,
      "UM": 8055,
      "▁حرق": 8056,
      "oma": 8057,
      "ّم": 8058,
      "undred": 8059,
      "▁temperature": 8060,
      "▁morning": 8061,
      "وارع": 8062,
      "▁الفض": 8063,
      "▁technology": 8064,
      "ثور": 8065,
      "عراض": 8066,
      "▁refer": 8067,
      "tered": 8068,
      "▁التعب": 8069,
      "▁الصوت": 8070,
      "▁‏": 8071,
      "روق": 8072,
      "تان": 8073,
      "▁زم": 8074,
      "▁goal": 8075,
      "▁مشاريع": 8076,
      "▁East": 8077,
      "▁phase": 8078,
      "ett": 8079,
      "▁includes": 8080,
      "ِين": 8081,
      "▁cover": 8082,
      "px": 8083,
      "▁fast": 8084,
      "شط": 8085,
      "▁هر": 8086,
      "روعات": 8087,
      "▁عهد": 8088,
      "▁لتحقيق": 8089,
      "▁يرى": 8090,
      "________": 8091,
      "▁protect": 8092,
      "▁السيارة": 8093,
      "ees": 8094,
      "▁الوحيد": 8095,
      "▁اﻷ": 8096,
      "▁brought": 8097,
      "▁بسيط": 8098,
      "▁تأس": 8099,
      "▁website": 8100,
      "▁احب": 8101,
      "▁الإقليم": 8102,
      "نز": 8103,
      "▁السادس": 8104,
      "▁بطريقة": 8105,
      "▁reports": 8106,
      "▁يسلم": 8107,
      "▁حلول": 8108,
      "▁النقد": 8109,
      "▁arrest": 8110,
      "▁autom": 8111,
      "▁Cons": 8112,
      "▁القاضي": 8113,
      "View": 8114,
      "erson": 8115,
      "عدم": 8116,
      "▁اخبارنا": 8117,
      "ورين": 8118,
      "▁فني": 8119,
      "▁یمن": 8120,
      "▁غدا": 8121,
      "▁bound": 8122,
      "vis": 8123,
      "▁فیتو": 8124,
      "▁للعمل": 8125,
      "augh": 8126,
      "▁الأستاذ": 8127,
      "بعه": 8128,
      "▁واذا": 8129,
      "صير": 8130,
      "▁المحافظ": 8131,
      "فيض": 8132,
      "xy": 8133,
      "▁صع": 8134,
      "▁الطبيب": 8135,
      "▁الإف": 8136,
      "▁أست": 8137,
      "ociety": 8138,
      "▁greater": 8139,
      "▁anyone": 8140,
      "▁bott": 8141,
      "ults": 8142,
      "▁presented": 8143,
      "▁depend": 8144,
      "▁aim": 8145,
      "rc": 8146,
      "▁cry": 8147,
      "▁البوابه": 8148,
      "clus": 8149,
      "باع": 8150,
      "ورج": 8151,
      "oman": 8152,
      "▁البخاري": 8153,
      "▁لض": 8154,
      "gu": 8155,
      "▁speed": 8156,
      "▁صدق": 8157,
      "▁demand": 8158,
      "▁الكبيرة": 8159,
      "حاب": 8160,
      "reme": 8161,
      "باك": 8162,
      "رائيلية": 8163,
      "▁gene": 8164,
      "▁للي": 8165,
      "ثرة": 8166,
      "ياتي": 8167,
      "▁تسلم": 8168,
      "▁أمريكا": 8169,
      "pper": 8170,
      "▁correct": 8171,
      "▁امرأة": 8172,
      "ذى": 8173,
      "▁يحصل": 8174,
      "ماس": 8175,
      "▁فيصل": 8176,
      "index": 8177,
      "▁بعدما": 8178,
      "▁primary": 8179,
      "▁directly": 8180,
      "▁activities": 8181,
      "▁المحافظة": 8182,
      "▁واخ": 8183,
      "CL": 8184,
      "▁experiment": 8185,
      "▁candid": 8186,
      "▁sle": 8187,
      "This": 8188,
      "▁قوي": 8189,
      "▁بيد": 8190,
      "بلوما": 8191,
      "▁المركزي": 8192,
      "▁الدردشة": 8193,
      "▁identified": 8194,
      "▁neigh": 8195,
      "ael": 8196,
      "ula": 8197,
      "▁عما": 8198,
      "▁ورق": 8199,
      "pan": 8200,
      "▁الهواء": 8201,
      "point": 8202,
      "ken": 8203,
      "احب": 8204,
      "▁الطبيعي": 8205,
      "▁los": 8206,
      "▁software": 8207,
      "▁heard": 8208,
      "light": 8209,
      "▁يقل": 8210,
      "▁انواع": 8211,
      "▁اند": 8212,
      "ثناء": 8213,
      "▁:)": 8214,
      "▁HD": 8215,
      "▁حملة": 8216,
      "▁اثنين": 8217,
      "▁France": 8218,
      "▁released": 8219,
      "▁الحقيقة": 8220,
      "ida": 8221,
      "▁ليف": 8222,
      "▁coup": 8223,
      "▁مقد": 8224,
      "▁عادي": 8225,
      "▁India": 8226,
      "▁staff": 8227,
      "actions": 8228,
      "جلة": 8229,
      "▁أجزاء": 8230,
      "▁صنعاء": 8231,
      "apter": 8232,
      "▁limited": 8233,
      "▁المشاريع": 8234,
      "▁Mor": 8235,
      "▁كوب": 8236,
      "RA": 8237,
      "▁القاسم": 8238,
      "▁ten": 8239,
      "▁مشت": 8240,
      "▁Us": 8241,
      "غلاق": 8242,
      "▁species": 8243,
      "▁management": 8244,
      "مح": 8245,
      "▁التاس": 8246,
      "fra": 8247,
      "...\"": 8248,
      "▁King": 8249,
      "▁السين": 8250,
      "▁اكل": 8251,
      "▁شم": 8252,
      "▁claims": 8253,
      "ارقة": 8254,
      "ظبي": 8255,
      "anced": 8256,
      "▁unit": 8257,
      "▁Of": 8258,
      "▁regular": 8259,
      "EW": 8260,
      "صي": 8261,
      "▁وام": 8262,
      "▁independent": 8263,
      "▁العدل": 8264,
      "ocol": 8265,
      "قاش": 8266,
      "▁Det": 8267,
      "▁buy": 8268,
      "▁comment": 8269,
      "▁proposed": 8270,
      "ager": 8271,
      "▁box": 8272,
      "▁اعتقد": 8273,
      "▁والمر": 8274,
      "وعية": 8275,
      "شح": 8276,
      "▁pet": 8277,
      "▁حظ": 8278,
      "▁played": 8279,
      "▁profess": 8280,
      "▁الرؤ": 8281,
      "▁النهائي": 8282,
      "▁stage": 8283,
      "infty": 8284,
      "رجال": 8285,
      "▁driv": 8286,
      "▁جب": 8287,
      "▁شرك": 8288,
      "▁مواطن": 8289,
      "sych": 8290,
      "▁الجزيرة": 8291,
      "++": 8292,
      "▁friends": 8293,
      "▁المحجر": 8294,
      "▁White": 8295,
      "▁physical": 8296,
      "orks": 8297,
      "▁لفت": 8298,
      "رحمن": 8299,
      "▁hon": 8300,
      "joy": 8301,
      "▁published": 8302,
      "▁المعنى": 8303,
      "ruary": 8304,
      "▁resolution": 8305,
      "يلات": 8306,
      "▁تحويل": 8307,
      "▁واد": 8308,
      "▁vac": 8309,
      "mary": 8310,
      "field": 8311,
      "▁الرابعة": 8312,
      "قرة": 8313,
      "▁جو": 8314,
      "▁sort": 8315,
      "▁كول": 8316,
      "▁السير": 8317,
      "▁استش": 8318,
      "aches": 8319,
      "define": 8320,
      "نادق": 8321,
      "ais": 8322,
      "▁parties": 8323,
      "▁استغ": 8324,
      "فرد": 8325,
      "▁علاقة": 8326,
      "rapy": 8327,
      "▁وبد": 8328,
      "فسهم": 8329,
      "▁^": 8330,
      "ربين": 8331,
      "▁Trans": 8332,
      "mat": 8333,
      "▁ضغط": 8334,
      "▁أبناء": 8335,
      "فاوضات": 8336,
      "▁نتيجه": 8337,
      "kn": 8338,
      "\");": 8339,
      "▁context": 8340,
      "▁الطحن": 8341,
      "▁القضية": 8342,
      "▁والمؤ": 8343,
      "▁الته": 8344,
      "▁sen": 8345,
      "▁اين": 8346,
      "▁مدرسة": 8347,
      "aries": 8348,
      "▁ملايين": 8349,
      "▁مقاط": 8350,
      "▁knowledge": 8351,
      "▁نسخه": 8352,
      "▁المض": 8353,
      "▁النز": 8354,
      "▁ri": 8355,
      "▁Other": 8356,
      "▁صب": 8357,
      "▁Aut": 8358,
      "▁المورد": 8359,
      "▁hol": 8360,
      "▁زمان": 8361,
      "▁types": 8362,
      "▁جداً": 8363,
      "IA": 8364,
      "▁ستكون": 8365,
      "▁يبلغ": 8366,
      "▁اتخاذ": 8367,
      "▁المغربية": 8368,
      "▁سقط": 8369,
      "word": 8370,
      "َح": 8371,
      "▁تذكر": 8372,
      "▁القديمة": 8373,
      "▁controll": 8374,
      "▁العبد": 8375,
      "state": 8376,
      "▁functions": 8377,
      "▁خصوصا": 8378,
      "▁عَل": 8379,
      "▁كا": 8380,
      "▁القض": 8381,
      "ثيل": 8382,
      "▁جريدة": 8383,
      "▁clinical": 8384,
      "حايا": 8385,
      "▁ماليزيا": 8386,
      "▁الأحمر": 8387,
      "▁terror": 8388,
      "▁answer": 8389,
      "▁الكمبيوتر": 8390,
      "▁الغرب": 8391,
      "زمات": 8392,
      "▁except": 8393,
      "▁العنف": 8394,
      "▁dark": 8395,
      "حث": 8396,
      "▁takes": 8397,
      "▁مقارنة": 8398,
      "▁engine": 8399,
      "▁failed": 8400,
      "▁برشل": 8401,
      "▁هبة": 8402,
      "coming": 8403,
      "▁مناز": 8404,
      "▁establish": 8405,
      "▁select": 8406,
      "▁خلالها": 8407,
      "▁وبركاته": 8408,
      "▁determine": 8409,
      "عمار": 8410,
      "▁السك": 8411,
      "▁التون": 8412,
      "▁ورحمة": 8413,
      "▁stru": 8414,
      "يسيا": 8415,
      "}$,": 8416,
      "▁معي": 8417,
      "ُر": 8418,
      "▁round": 8419,
      "▁الرحيم": 8420,
      "▁pen": 8421,
      "To": 8422,
      "واطن": 8423,
      "▁poly": 8424,
      "▁العائ": 8425,
      "▁أسبوع": 8426,
      "▁الحديثة": 8427,
      "▁interview": 8428,
      "._": 8429,
      "▁قاعدة": 8430,
      "king": 8431,
      "▁mi": 8432,
      "▁efforts": 8433,
      "ius": 8434,
      "▁message": 8435,
      "▁وبعض": 8436,
      "▁write": 8437,
      "رار": 8438,
      "ka": 8439,
      "▁mention": 8440,
      "▁يقع": 8441,
      "▁Port": 8442,
      "uild": 8443,
      "▁CO": 8444,
      "sembly": 8445,
      "▁شو": 8446,
      "▁±": 8447,
      "▁London": 8448,
      "▁سو": 8449,
      "▁التعليمية": 8450,
      "▁إسحاق": 8451,
      "▁يمثل": 8452,
      "▁الاقت": 8453,
      "▁الثقافة": 8454,
      "▁تظهر": 8455,
      "▁ability": 8456,
      "▁مياه": 8457,
      "▁diagn": 8458,
      "▁طويل": 8459,
      "▁الالت": 8460,
      "▁Pre": 8461,
      "▁كفر": 8462,
      "▁البيان": 8463,
      "▁كغير": 8464,
      "▁allowed": 8465,
      "▁،،": 8466,
      "لح": 8467,
      "گە": 8468,
      "▁copy": 8469,
      "▁العراقية": 8470,
      "▁وثيق": 8471,
      "▁بينهما": 8472,
      "▁السنوات": 8473,
      "acing": 8474,
      "▁الخرسانة": 8475,
      "mark": 8476,
      "▁معين": 8477,
      "▁nearly": 8478,
      "بارات": 8479,
      "▁بصورة": 8480,
      "▁Mal": 8481,
      "▁note": 8482,
      "▁sound": 8483,
      "▁يبحث": 8484,
      "▁يلت": 8485,
      "▁leader": 8486,
      "▁bud": 8487,
      "▁الفساد": 8488,
      "▁attention": 8489,
      "▁thous": 8490,
      "▁seven": 8491,
      "▁gun": 8492,
      "TH": 8493,
      "▁tiss": 8494,
      "▁grad": 8495,
      "▁خي": 8496,
      "▁rule": 8497,
      "هام": 8498,
      "▁أراد": 8499,
      "▁sample": 8500,
      "Table": 8501,
      "▁مستعملة": 8502,
      "قيقية": 8503,
      "▁يخرج": 8504,
      "hest": 8505,
      "▁appropri": 8506,
      "▁نيوز": 8507,
      "▁المنظمة": 8508,
      "▁County": 8509,
      "▁جدول": 8510,
      "وحيد": 8511,
      "document": 8512,
      "▁CH": 8513,
      "▁قريب": 8514,
      "▁nature": 8515,
      "▁nation": 8516,
      "orge": 8517,
      "▁nuclear": 8518,
      "▁poor": 8519,
      "احت": 8520,
      "▁الأو": 8521,
      "▁السما": 8522,
      "▁تواصل": 8523,
      "▁practice": 8524,
      "▁النائب": 8525,
      "▁باس": 8526,
      "▁انتشار": 8527,
      "▁فري": 8528,
      "▁board": 8529,
      "▁بسي": 8530,
      "▁Bro": 8531,
      "des": 8532,
      "هلك": 8533,
      "▁الموارد": 8534,
      "▁اللواء": 8535,
      "▁elements": 8536,
      "▁mount": 8537,
      "▁Associ": 8538,
      "list": 8539,
      "▁المسلحة": 8540,
      "▁والعمل": 8541,
      "▁plant": 8542,
      "PS": 8543,
      "▁خلاف": 8544,
      "▁carry": 8545,
      "▁numbers": 8546,
      "▁decided": 8547,
      "▁opin": 8548,
      "▁النتائج": 8549,
      "▁الإست": 8550,
      "علوم": 8551,
      "▁PR": 8552,
      "▁February": 8553,
      "▁الشعبية": 8554,
      "حيان": 8555,
      "ضحك": 8556,
      "▁بتح": 8557,
      "▁وصلت": 8558,
      "يضا": 8559,
      "عاً": 8560,
      "▁<<": 8561,
      "▁الشرعية": 8562,
      "▁إله": 8563,
      "رويد": 8564,
      "لقه": 8565,
      "▁sequence": 8566,
      ".[": 8567,
      "▁الذات": 8568,
      "▁ابراهيم": 8569,
      "نها": 8570,
      "▁أسماء": 8571,
      "inter": 8572,
      "urt": 8573,
      "▁Dec": 8574,
      "▁Bush": 8575,
      "ilies": 8576,
      "الإ": 8577,
      "▁القراءة": 8578,
      "▁chief": 8579,
      "ully": 8580,
      "▁alone": 8581,
      "▁مرس": 8582,
      "za": 8583,
      "▁promot": 8584,
      "▁Spec": 8585,
      "itional": 8586,
      "▁لسان": 8587,
      "واجهة": 8588,
      "▁bed": 8589,
      "▁constant": 8590,
      "▁محاولة": 8591,
      "▁usually": 8592,
      "▁القادمة": 8593,
      "▁عندك": 8594,
      "▁وفى": 8595,
      "▁arriv": 8596,
      "واجد": 8597,
      "▁لإن": 8598,
      "▁star": 8599,
      "▁طفل": 8600,
      "▁تحسين": 8601,
      "▁ويل": 8602,
      "▁Off": 8603,
      "but": 8604,
      "▁ملفات": 8605,
      "▁purch": 8606,
      "\\\\": 8607,
      "کو": 8608,
      "inh": 8609,
      "▁لديك": 8610,
      "▁عي": 8611,
      "وسع": 8612,
      "anch": 8613,
      "pg": 8614,
      "▁اختبار": 8615,
      "▁وكذا": 8616,
      "▁David": 8617,
      "سيم": 8618,
      "itness": 8619,
      "▁closed": 8620,
      "▁استمرار": 8621,
      "▁واشنطن": 8622,
      "▁inform": 8623,
      "Col": 8624,
      "▁أنحاء": 8625,
      "▁acid": 8626,
      "▁correl": 8627,
      "▁يبقى": 8628,
      "كلف": 8629,
      "lo": 8630,
      "▁plaintiff": 8631,
      "▁قبي": 8632,
      "ecause": 8633,
      "▁فار": 8634,
      "▁ثان": 8635,
      "▁فهل": 8636,
      "MS": 8637,
      "▁المغربیة": 8638,
      "▁hyp": 8639,
      "▁الدار": 8640,
      "▁map": 8641,
      "▁واسع": 8642,
      "▁بالفعل": 8643,
      "خرا": 8644,
      "▁double": 8645,
      "▁محجر": 8646,
      "resh": 8647,
      "▁حاجه": 8648,
      "▁Sub": 8649,
      "ography": 8650,
      "▁موت": 8651,
      "▁القانونية": 8652,
      "▁قائد": 8653,
      "▁أرد": 8654,
      "▁الوحدة": 8655,
      "ئت": 8656,
      "▁التشغيل": 8657,
      "▁follows": 8658,
      "▁القديم": 8659,
      "▁resid": 8660,
      "▁اكس": 8661,
      "بادة": 8662,
      "bre": 8663,
      "▁اتمنى": 8664,
      "ios": 8665,
      "▁valid": 8666,
      "غو": 8667,
      "▁details": 8668,
      "fs": 8669,
      "بول": 8670,
      "وتيوب": 8671,
      "جتمع": 8672,
      "▁القوة": 8673,
      "}$.": 8674,
      "▁ord": 8675,
      "▁Iran": 8676,
      "▁charge": 8677,
      "▁instit": 8678,
      "▁الاردن": 8679,
      "width": 8680,
      "▁mole": 8681,
      "gn": 8682,
      "▁التكسير": 8683,
      "▁operation": 8684,
      "▁previously": 8685,
      "▁avoid": 8686,
      "wide": 8687,
      "▁Palestin": 8688,
      "▁بلغت": 8689,
      "▁evalu": 8690,
      "▁وتد": 8691,
      "▁المحي": 8692,
      "▁GM": 8693,
      "▁الملكي": 8694,
      "▁anim": 8695,
      "iled": 8696,
      "aur": 8697,
      "▁acqu": 8698,
      "▁config": 8699,
      "RNA": 8700,
      "▁!!!": 8701,
      "▁يرد": 8702,
      "rang": 8703,
      "refore": 8704,
      "▁govern": 8705,
      "▁أز": 8706,
      "▁والمست": 8707,
      "▁إجراءات": 8708,
      "▁administration": 8709,
      "▁بينها": 8710,
      "▁البع": 8711,
      "▁الصعب": 8712,
      "▁ways": 8713,
      "▁Black": 8714,
      "▁Tw": 8715,
      "▁الشمالية": 8716,
      "▁قليل": 8717,
      "▁والتح": 8718,
      "▁الطريقة": 8719,
      "▁المتهم": 8720,
      "▁hundred": 8721,
      "ّا": 8722,
      "▁بيروت": 8723,
      "▁hop": 8724,
      "▁صي": 8725,
      "▁option": 8726,
      "▁Service": 8727,
      "oto": 8728,
      "باحث": 8729,
      "▁تحقق": 8730,
      "nb": 8731,
      "▁يمت": 8732,
      "▁تحديث": 8733,
      "▁يال": 8734,
      "بهة": 8735,
      "▁الصغير": 8736,
      "▁drive": 8737,
      "▁manufact": 8738,
      "▁High": 8739,
      "▁مراکو": 8740,
      "▁Two": 8741,
      "داة": 8742,
      "▁established": 8743,
      "▁العصر": 8744,
      "▁Trump": 8745,
      "▁Even": 8746,
      "▁نجم": 8747,
      "▁تحرير": 8748,
      "▁اللى": 8749,
      "▁saf": 8750,
      "▁البطولة": 8751,
      "EG": 8752,
      "▁education": 8753,
      "▁died": 8754,
      "▁لابد": 8755,
      "▁مسألة": 8756,
      "▁المغربي": 8757,
      "Is": 8758,
      "▁computer": 8759,
      "urb": 8760,
      "▁express": 8761,
      "▁prime": 8762,
      "▁graph": 8763,
      "▁AL": 8764,
      "▁الانتقال": 8765,
      "▁المشترك": 8766,
      "▁أحب": 8767,
      "▁Russia": 8768,
      "ky": 8769,
      "▁هوا": 8770,
      "▁وجاء": 8771,
      "gest": 8772,
      "dis": 8773,
      "▁تعلن": 8774,
      "▁اليون": 8775,
      "جميل": 8776,
      "▁reduced": 8777,
      "cm": 8778,
      "▁},": 8779,
      "عتها": 8780,
      "▁parts": 8781,
      "▁للجميع": 8782,
      "▁clean": 8783,
      "ضعف": 8784,
      "َف": 8785,
      "▁بعيدا": 8786,
      "ياج": 8787,
      "▁بالمدينة": 8788,
      "▁يدل": 8789,
      "▁الحقيقي": 8790,
      "▁والات": 8791,
      "▁تقل": 8792,
      "▁جيدة": 8793,
      "▁worked": 8794,
      "olic": 8795,
      "▁ذكره": 8796,
      "▁الأحداث": 8797,
      "ملت": 8798,
      "▁ذو": 8799,
      "och": 8800,
      "▁swe": 8801,
      "▁لوحة": 8802,
      "▁توزيع": 8803,
      "▁بتن": 8804,
      "ائري": 8805,
      "فيذي": 8806,
      "▁حضور": 8807,
      "▁انق": 8808,
      "▁عندنا": 8809,
      "خلق": 8810,
      "زون": 8811,
      "ental": 8812,
      "▁properties": 8813,
      "▁مستشفى": 8814,
      "هيل": 8815,
      "▁العقد": 8816,
      "روي": 8817,
      "▁فيت": 8818,
      "CD": 8819,
      "igen": 8820,
      "▁قوية": 8821,
      "▁Ear": 8822,
      "▁hospital": 8823,
      "ندن": 8824,
      "▁التحقيق": 8825,
      "band": 8826,
      "▁اعتبار": 8827,
      "▁باقي": 8828,
      "▁التنظيم": 8829,
      "yond": 8830,
      "▁TO": 8831,
      "ّي": 8832,
      "')": 8833,
      "▁المشاركات": 8834,
      "فقة": 8835,
      "▁Paul": 8836,
      "▁شخصية": 8837,
      "▁تصريح": 8838,
      "ظن": 8839,
      "▁ضمان": 8840,
      "▁contain": 8841,
      "ornia": 8842,
      "▁الأسطوانة": 8843,
      "▁pretty": 8844,
      "▁البش": 8845,
      "▁بكم": 8846,
      "▁الحالات": 8847,
      "مد": 8848,
      "▁وأنه": 8849,
      "▁تقع": 8850,
      "▁مرور": 8851,
      "جية": 8852,
      "▁altern": 8853,
      "▁generally": 8854,
      "▁أض": 8855,
      "▁inn": 8856,
      "سبانيا": 8857,
      "▁bal": 8858,
      "▁حفل": 8859,
      "▁وعلي": 8860,
      "outhern": 8861,
      "▁سيف": 8862,
      "▁Africa": 8863,
      "▁الأبيض": 8864,
      "ayer": 8865,
      "▁حزيران": 8866,
      "حيل": 8867,
      "▁deriv": 8868,
      "▁الحا": 8869,
      "▁Congress": 8870,
      "▁الدقيقة": 8871,
      "▁لاع": 8872,
      "▁الإرهاب": 8873,
      "▁Stud": 8874,
      "فاعل": 8875,
      "طلبات": 8876,
      "▁ومحمد": 8877,
      "بخ": 8878,
      "▁العالي": 8879,
      "▁الفوركس": 8880,
      "ازي": 8881,
      "quest": 8882,
      "▁تجاوز": 8883,
      "▁الجواب": 8884,
      "▁اخذ": 8885,
      "▁surpr": 8886,
      "▁wrote": 8887,
      "▁مواضيع": 8888,
      "▁وذ": 8889,
      "bon": 8890,
      "▁الروسية": 8891,
      "▁progress": 8892,
      "▁applied": 8893,
      "▁relig": 8894,
      "▁رائعة": 8895,
      "▁مطر": 8896,
      "▁الدراسات": 8897,
      "ria": 8898,
      "ديقة": 8899,
      "نام": 8900,
      "▁غرف": 8901,
      "▁plans": 8902,
      "▁أبيه": 8903,
      "▁الجاري": 8904,
      "ِر": 8905,
      "▁وتف": 8906,
      "▁Germany": 8907,
      "▁قوه": 8908,
      "▁samples": 8909,
      "▁active": 8910,
      "ech": 8911,
      "▁Therefore": 8912,
      "▁نجد": 8913,
      "▁يوميا": 8914,
      "▁shot": 8915,
      "▁,,": 8916,
      "▁الجوية": 8917,
      "بيان": 8918,
      "▁الصينية": 8919,
      "▁wife": 8920,
      "▁ذك": 8921,
      "Delta": 8922,
      "▁إعلان": 8923,
      "▁واحده": 8924,
      "▁Id": 8925,
      "▁مؤكدا": 8926,
      "سع": 8927,
      "▁AD": 8928,
      "▁منظ": 8929,
      "lor": 8930,
      "call": 8931,
      "كييف": 8932,
      "▁فكر": 8933,
      "ناع": 8934,
      "iring": 8935,
      "▁للأس": 8936,
      "▁التقلي": 8937,
      "ils": 8938,
      "▁المدرسة": 8939,
      "▁جبل": 8940,
      "▁الأجهزة": 8941,
      "▁القوى": 8942,
      "▁استه": 8943,
      "▁stock": 8944,
      "▁سابق": 8945,
      "▁الإنسانية": 8946,
      "▁Jud": 8947,
      "▁بمس": 8948,
      "▁تقييم": 8949,
      "▁الاهلي": 8950,
      "▁ففي": 8951,
      "untu": 8952,
      "▁نقص": 8953,
      "▁مجانية": 8954,
      "group": 8955,
      "fection": 8956,
      "▁Inst": 8957,
      "غطية": 8958,
      "▁System": 8959,
      "▁grant": 8960,
      "▁الحالية": 8961,
      "▁random": 8962,
      "inate": 8963,
      "ulate": 8964,
      "oring": 8965,
      "pre": 8966,
      "كاة": 8967,
      "يروس": 8968,
      "ocy": 8969,
      "CE": 8970,
      "▁القيادة": 8971,
      "▁المؤسسة": 8972,
      "▁الكوار": 8973,
      "Data": 8974,
      "ابين": 8975,
      "دونيسيا": 8976,
      "▁Tur": 8977,
      "تماعية": 8978,
      "▁genes": 8979,
      "▁تهتز": 8980,
      "▁spokes": 8981,
      "▁انس": 8982,
      "▁لمش": 8983,
      "يفون": 8984,
      "اعي": 8985,
      "▁الأطراف": 8986,
      "▁بغير": 8987,
      "▁القمر": 8988,
      "▁الثانوية": 8989,
      "ركم": 8990,
      "▁direction": 8991,
      "▁مجتمع": 8992,
      "▁reference": 8993,
      "atform": 8994,
      "▁الناقل": 8995,
      "▁designed": 8996,
      "وست": 8997,
      "▁الجمال": 8998,
      "لكه": 8999,
      "▁ممتاز": 9000,
      "▁ضعف": 9001,
      "▁الصالح": 9002,
      "▁مطلوب": 9003,
      "▁fat": 9004,
      "زمه": 9005,
      "▁worth": 9006,
      "▁تجربة": 9007,
      "▁caused": 9008,
      "▁نظم": 9009,
      "▁eth": 9010,
      "▁ونت": 9011,
      "▁النه": 9012,
      "▁images": 9013,
      "كومة": 9014,
      "ِم": 9015,
      "▁الشاف": 9016,
      "▁everyone": 9017,
      "▁weap": 9018,
      "▁لز": 9019,
      "▁hear": 9020,
      "رويج": 9021,
      "▁الجرانيت": 9022,
      "▁names": 9023,
      "▁المدنية": 9024,
      "▁غسيل": 9025,
      "جيع": 9026,
      "▁المشكلة": 9027,
      "▁remains": 9028,
      "]{},": 9029,
      "▁اقل": 9030,
      "That": 9031,
      "قاذ": 9032,
      "▁المنتديات": 9033,
      "▁band": 9034,
      "▁الإسرائيلي": 9035,
      "جمات": 9036,
      "عليم": 9037,
      "▁appeal": 9038,
      "▁TV": 9039,
      "dev": 9040,
      "فعيل": 9041,
      "▁fear": 9042,
      "▁يؤكد": 9043,
      "▁perfect": 9044,
      "▁fine": 9045,
      "▁خصم": 9046,
      "▁الحوثي": 9047,
      "مرة": 9048,
      "▁fair": 9049,
      "باه": 9050,
      "▁Inter": 9051,
      "▁measures": 9052,
      "مير": 9053,
      "▁التمو": 9054,
      "otic": 9055,
      "▁الرياضة": 9056,
      "▁النج": 9057,
      "صيد": 9058,
      "▁ult": 9059,
      "▁كبار": 9060,
      "▁economy": 9061,
      "▁المهندس": 9062,
      "▁adopt": 9063,
      "▁California": 9064,
      "غار": 9065,
      "▁DNA": 9066,
      "▁أدوات": 9067,
      "▁null": 9068,
      "▁فاع": 9069,
      "▁Ap": 9070,
      "▁الخض": 9071,
      "خيل": 9072,
      "قيب": 9073,
      "هران": 9074,
      "▁har": 9075,
      "▁المكتب": 9076,
      "▁الحين": 9077,
      "▁اور": 9078,
      "▁الحصى": 9079,
      "met": 9080,
      "▁ومؤ": 9081,
      "▁qual": 9082,
      "sim": 9083,
      "▁mill": 9084,
      "▁فص": 9085,
      "AY": 9086,
      "▁انتهى": 9087,
      "▁Bel": 9088,
      "EF": 9089,
      "▁سج": 9090,
      "▁الصيف": 9091,
      "▁وخاصة": 9092,
      "^*": 9093,
      "▁Hol": 9094,
      "نافس": 9095,
      "▁الصانع": 9096,
      "▁القارئ": 9097,
      "▁جمعية": 9098,
      "▁وغيره": 9099,
      "▁بوت": 9100,
      "▁الشخصي": 9101,
      "▁اهتمام": 9102,
      "▁parameters": 9103,
      "▁لديها": 9104,
      "▁أصبحت": 9105,
      "▁الده": 9106,
      "▁continued": 9107,
      "▁باريس": 9108,
      "aud": 9109,
      "▁الهم": 9110,
      "uman": 9111,
      "▁عادل": 9112,
      "▁الطبيعية": 9113,
      "كلات": 9114,
      "ربت": 9115,
      "▁لغة": 9116,
      "▁راس": 9117,
      "▁للغاية": 9118,
      "ناد": 9119,
      "\\*": 9120,
      "▁إعداد": 9121,
      "▁Security": 9122,
      "board": 9123,
      "▁المحد": 9124,
      "▁theory": 9125,
      "OU": 9126,
      "▁arch": 9127,
      "▁أحكام": 9128,
      "▁column": 9129,
      "TS": 9130,
      "واقع": 9131,
      "▁نقول": 9132,
      "▁دردشة": 9133,
      "ارين": 9134,
      "▁هشام": 9135,
      "▁المقال": 9136,
      "lementary": 9137,
      "لار": 9138,
      "▁ترم": 9139,
      "ابير": 9140,
      "▁الشارع": 9141,
      "يدي": 9142,
      "▁الفن": 9143,
      "▁currently": 9144,
      "▁القبض": 9145,
      "Al": 9146,
      "▁أى": 9147,
      "اعده": 9148,
      "orage": 9149,
      "▁Air": 9150,
      "isms": 9151,
      "▁نهائي": 9152,
      "▁والمح": 9153,
      "BS": 9154,
      "▁قوم": 9155,
      "▁ويتم": 9156,
      "ئك": 9157,
      "▁expressed": 9158,
      "اجد": 9159,
      "▁costs": 9160,
      "▁التكنولوجيا": 9161,
      "يير": 9162,
      "rick": 9163,
      "▁popular": 9164,
      "▁reached": 9165,
      "▁Times": 9166,
      "acement": 9167,
      "param": 9168,
      "▁القدرة": 9169,
      "▁سري": 9170,
      "▁جنا": 9171,
      "▁ولكنه": 9172,
      "\";": 9173,
      "▁مبروك": 9174,
      "ilit": 9175,
      "ليون": 9176,
      "▁منكم": 9177,
      "▁border": 9178,
      "▁معدل": 9179,
      "eline": 9180,
      "▁الميز": 9181,
      "حته": 9182,
      "const": 9183,
      "▁الزيت": 9184,
      "▁وأع": 9185,
      "▁صعب": 9186,
      "▁workers": 9187,
      "▁أولا": 9188,
      "▁الجمهور": 9189,
      "inton": 9190,
      "▁Union": 9191,
      "▁enjoy": 9192,
      "▁استط": 9193,
      "نوان": 9194,
      "يميا": 9195,
      "▁الرق": 9196,
      "▁sec": 9197,
      "▁الظروف": 9198,
      "▁تبدأ": 9199,
      "همية": 9200,
      "نيين": 9201,
      "▁طريقه": 9202,
      "berg": 9203,
      "▁التدريب": 9204,
      "مرت": 9205,
      "▁!=": 9206,
      "▁خليفة": 9207,
      "▁نجوم": 9208,
      "▁phone": 9209,
      "▁mur": 9210,
      "فيان": 9211,
      "رجة": 9212,
      "▁Also": 9213,
      "tilde": 9214,
      "PL": 9215,
      "▁الفرد": 9216,
      "▁مشترك": 9217,
      "▁election": 9218,
      "*~": 9219,
      "deed": 9220,
      "▁proceed": 9221,
      "▁المقرر": 9222,
      "▁built": 9223,
      "itz": 9224,
      "▁نسب": 9225,
      "▁differences": 9226,
      "irmed": 9227,
      "▁الحاج": 9228,
      "اغ": 9229,
      "▁شرطة": 9230,
      "ui": 9231,
      "رقام": 9232,
      "يما": 9233,
      "▁السفير": 9234,
      "osure": 9235,
      "▁array": 9236,
      "▁عادة": 9237,
      "▁Windows": 9238,
      "plate": 9239,
      "▁أشخاص": 9240,
      "▁يفت": 9241,
      "As": 9242,
      "▁مراكز": 9243,
      "▁نوم": 9244,
      "▁المناسبة": 9245,
      "▁Rober": 9246,
      "فعال": 9247,
      "ضرورة": 9248,
      "vest": 9249,
      "▁والمش": 9250,
      "▁Tex": 9251,
      "▁العمال": 9252,
      "Se": 9253,
      "▁الإخوان": 9254,
      "لول": 9255,
      "▁العمليات": 9256,
      "▁الجهود": 9257,
      "▁sales": 9258,
      "ريقي": 9259,
      "▁ممثل": 9260,
      "▁المقاومة": 9261,
      "'-": 9262,
      "▁سورية": 9263,
      "شرق": 9264,
      "▁وعبد": 9265,
      "▁فتر": 9266,
      "odies": 9267,
      "▁Mod": 9268,
      "▁feed": 9269,
      "▁invention": 9270,
      "▁وكيل": 9271,
      "ثمارات": 9272,
      "▁prison": 9273,
      "ّد": 9274,
      "سيل": 9275,
      "▁الامن": 9276,
      "▁المسا": 9277,
      "▁كيلو": 9278,
      "cell": 9279,
      "▁الحجم": 9280,
      "▁التقنية": 9281,
      "▁قيادة": 9282,
      "▁عبدالرحمن": 9283,
      "▁behavior": 9284,
      "▁نقدم": 9285,
      "▁announced": 9286,
      "▁Calcul": 9287,
      "▁writing": 9288,
      "▁legisl": 9289,
      "▁خيرا": 9290,
      "▁somet": 9291,
      "ترا": 9292,
      "▁برق": 9293,
      "((": 9294,
      "▁درهم": 9295,
      "▁والأس": 9296,
      "وادث": 9297,
      "وائل": 9298,
      "iments": 9299,
      "▁الاع": 9300,
      "يمه": 9301,
      "ki": 9302,
      "▁الدفع": 9303,
      "▁Most": 9304,
      "َان": 9305,
      "▁منش": 9306,
      "TA": 9307,
      "urance": 9308,
      "ـــ": 9309,
      "▁مطار": 9310,
      "▁Indian": 9311,
      "▁rot": 9312,
      "ão": 9313,
      "▁سان": 9314,
      "برنامج": 9315,
      "enty": 9316,
      "▁صرف": 9317,
      "▁فضل": 9318,
      "▁الأنباء": 9319,
      "داخل": 9320,
      "▁الخطاب": 9321,
      "▁judgment": 9322,
      "وهم": 9323,
      "▁***": 9324,
      "▁تعود": 9325,
      "Er": 9326,
      "▁لافت": 9327,
      "▁Rel": 9328,
      "ford": 9329,
      "▁نيج": 9330,
      "رين": 9331,
      "▁الخصوص": 9332,
      "▁rules": 9333,
      "▁بسرعة": 9334,
      "▁افتتاح": 9335,
      "▁purpose": 9336,
      "If": 9337,
      "وكس": 9338,
      "▁accur": 9339,
      "▁المدن": 9340,
      "▁الرجاء": 9341,
      "▁background": 9342,
      "▁كبيرا": 9343,
      "▁الذكر": 9344,
      "علومات": 9345,
      "▁الخلا": 9346,
      "▁؟؟؟": 9347,
      "iance": 9348,
      "▁فرا": 9349,
      "▁الشام": 9350,
      "يتك": 9351,
      "ipment": 9352,
      "▁etc": 9353,
      "برت": 9354,
      "▁المعنية": 9355,
      "▁Don": 9356,
      "|\\": 9357,
      "▁التعا": 9358,
      "▁انظر": 9359,
      "▁الإج": 9360,
      "▁cit": 9361,
      "▁انخفاض": 9362,
      "▁مناق": 9363,
      "▁فب": 9364,
      "▁الشيء": 9365,
      "عدل": 9366,
      "▁player": 9367,
      "▁الأزمة": 9368,
      "▁challeng": 9369,
      "بيين": 9370,
      "▁ۋ": 9371,
      "MA": 9372,
      "▁محكمة": 9373,
      "▁produced": 9374,
      "▁يزال": 9375,
      "ريقية": 9376,
      "▁بطل": 9377,
      "▁experien": 9378,
      "▁اذ": 9379,
      "▁chance": 9380,
      "تيح": 9381,
      "raz": 9382,
      "حلقة": 9383,
      "▁noted": 9384,
      "▁حلو": 9385,
      "encies": 9386,
      "▁عامل": 9387,
      "▁capacity": 9388,
      "▁Read": 9389,
      "▁روم": 9390,
      "▁birth": 9391,
      "▁suit": 9392,
      "▁متعددة": 9393,
      "▁vote": 9394,
      "ريكية": 9395,
      "سباني": 9396,
      "▁highly": 9397,
      "▁larger": 9398,
      "▁ميت": 9399,
      "▁نسخة": 9400,
      "▁الإب": 9401,
      "▁العودة": 9402,
      "▁disp": 9403,
      "▁هجوم": 9404,
      "▁الرياضي": 9405,
      "▁negative": 9406,
      "DR": 9407,
      "▁playing": 9408,
      "trans": 9409,
      "▁للات": 9410,
      "رامب": 9411,
      "▁تعز": 9412,
      "ón": 9413,
      "▁الموس": 9414,
      "term": 9415,
      "▁nor": 9416,
      "ئمة": 9417,
      "▁Press": 9418,
      "position": 9419,
      "كونات": 9420,
      "aba": 9421,
      "▁Russian": 9422,
      "▁laws": 9423,
      "▁السياحة": 9424,
      "ولية": 9425,
      "▁Health": 9426,
      "▁إسلام": 9427,
      "▁اليس": 9428,
      "▁عرب": 9429,
      "▁impl": 9430,
      "▁agreed": 9431,
      "▁التنفيذي": 9432,
      "شرح": 9433,
      "▁قائلا": 9434,
      "▁سقوط": 9435,
      "ديك": 9436,
      "▁الاتصالات": 9437,
      "wan": 9438,
      "▁مقال": 9439,
      "▁الطيب": 9440,
      "▁layer": 9441,
      "▁الصمت": 9442,
      "https": 9443,
      "▁victim": 9444,
      "▁syn": 9445,
      "▁ولذلك": 9446,
      "▁فضلا": 9447,
      "▁العيد": 9448,
      "▁OR": 9449,
      "▁conflic": 9450,
      "▁العربيه": 9451,
      "▁gives": 9452,
      "▁beaut": 9453,
      "▁استخدم": 9454,
      "▁المساعدة": 9455,
      "▁تحتوي": 9456,
      "▁اعمال": 9457,
      "▁ومم": 9458,
      "▁قضايا": 9459,
      "........": 9460,
      "▁تحليل": 9461,
      "▁اللون": 9462,
      "▁جاءت": 9463,
      "صات": 9464,
      "▁resources": 9465,
      "▁علام": 9466,
      "▁اللَّ": 9467,
      "▁ready": 9468,
      "▁المقدمة": 9469,
      "▁shoot": 9470,
      "anned": 9471,
      "▁quickly": 9472,
      "▁كده": 9473,
      "▁شاب": 9474,
      "▁الشت": 9475,
      "▁بدل": 9476,
      "akers": 9477,
      "▁تختلف": 9478,
      "▁Center": 9479,
      "▁دعا": 9480,
      "طقه": 9481,
      "▁ويح": 9482,
      "sa": 9483,
      "▁تمثل": 9484,
      "omy": 9485,
      "▁changed": 9486,
      "▁lives": 9487,
      "▁poll": 9488,
      "▁فرع": 9489,
      "▁نبي": 9490,
      "▁counter": 9491,
      "▁الحرمين": 9492,
      "▁الخامسة": 9493,
      "هاجر": 9494,
      "▁brain": 9495,
      ";\r": 9496,
      "▁الرسالة": 9497,
      "ancy": 9498,
      "▁وفيه": 9499,
      "ester": 9500,
      "▁director": 9501,
      "▁المدرب": 9502,
      "igr": 9503,
      "gor": 9504,
      "▁مقدم": 9505,
      "▁الجمع": 9506,
      "▁يحتوي": 9507,
      "▁الكامل": 9508,
      "mail": 9509,
      "▁Fore": 9510,
      "▁باع": 9511,
      "▁الطرف": 9512,
      "▁الأقل": 9513,
      "▁اليهود": 9514,
      "▁أفراد": 9515,
      "لفظ": 9516,
      "دىن": 9517,
      "▁كندا": 9518,
      "izes": 9519,
      "▁غياب": 9520,
      "▁Ham": 9521,
      "]^": 9522,
      "▁حادث": 9523,
      "غام": 9524,
      "ودا": 9525,
      "▁الزي": 9526,
      "▁التجاري": 9527,
      "▁connection": 9528,
      "room": 9529,
      "عتقد": 9530,
      "قيام": 9531,
      "▁بمعنى": 9532,
      "▁ربيع": 9533,
      "▁باكستان": 9534,
      "▁jo": 9535,
      "▁باعتبار": 9536,
      "▁النجاح": 9537,
      "▁لنفس": 9538,
      "سوارات": 9539,
      "▁station": 9540,
      "▁immediately": 9541,
      "▁حرم": 9542,
      "ورها": 9543,
      "▁towards": 9544,
      "▁substant": 9545,
      "iated": 9546,
      "ولت": 9547,
      "ano": 9548,
      "▁تي": 9549,
      "▁السياسة": 9550,
      "▁مدر": 9551,
      "▁Add": 9552,
      "▁[*": 9553,
      "ملية": 9554,
      "▁مجلة": 9555,
      "quad": 9556,
      "لقات": 9557,
      "▁واق": 9558,
      "▁كتابة": 9559,
      "▁row": 9560,
      "▁مجانا": 9561,
      "▁سياسية": 9562,
      "▁مدار": 9563,
      "▁الروسي": 9564,
      "pid": 9565,
      "▁بمدينة": 9566,
      "املات": 9567,
      "▁الإرها": 9568,
      "▁tim": 9569,
      "▁كوم": 9570,
      "▁susp": 9571,
      "▁فرح": 9572,
      "▁النور": 9573,
      "▁stress": 9574,
      "▁cam": 9575,
      "▁أنك": 9576,
      "▁تعليقات": 9577,
      "eah": 9578,
      "نيسة": 9579,
      "}(\\": 9580,
      "▁الشكر": 9581,
      "▁van": 9582,
      "▁hous": 9583,
      "▁التقدم": 9584,
      "الفة": 9585,
      "ئون": 9586,
      "▁القضايا": 9587,
      "▁PD": 9588,
      "▁آسيا": 9589,
      "▁mice": 9590,
      "▁قادر": 9591,
      "▁quarter": 9592,
      "▁فِي": 9593,
      "with": 9594,
      "▁مؤشر": 9595,
      "▁الرابط": 9596,
      "▁Park": 9597,
      "احات": 9598,
      "▁construct": 9599,
      "▁tour": 9600,
      "ifying": 9601,
      "Ob": 9602,
      "▁Ac": 9603,
      "▁وتط": 9604,
      "قيات": 9605,
      "▁العربی": 9606,
      "▁الباحث": 9607,
      "▁جديده": 9608,
      "▁مسب": 9609,
      "▁sites": 9610,
      "TER": 9611,
      "▁liter": 9612,
      "أتي": 9613,
      "ML": 9614,
      "▁وأنت": 9615,
      "▁Law": 9616,
      "▁هت": 9617,
      "▁الآخرين": 9618,
      "▁تجعل": 9619,
      "▁الموجودة": 9620,
      "▁شاشة": 9621,
      "▁−": 9622,
      "▁parents": 9623,
      "path": 9624,
      "PC": 9625,
      "▁أجمل": 9626,
      "ules": 9627,
      "▁توجيه": 9628,
      "force": 9629,
      "▁German": 9630,
      "▁رابط": 9631,
      "rite": 9632,
      "راعة": 9633,
      "▁relevant": 9634,
      "▁جابر": 9635,
      "▁race": 9636,
      "rad": 9637,
      "▁الرئ": 9638,
      "اقات": 9639,
      "wards": 9640,
      "▁choice": 9641,
      "▁gold": 9642,
      "حيانا": 9643,
      "▁Up": 9644,
      "▁فلي": 9645,
      "تني": 9646,
      "▁بمناسبة": 9647,
      "▁الكهربائية": 9648,
      "▁انتي": 9649,
      "▁اللبناني": 9650,
      "▁زاد": 9651,
      "▁مأ": 9652,
      "▁قصر": 9653,
      "▁Islam": 9654,
      "▁بض": 9655,
      "▁unc": 9656,
      "imb": 9657,
      "▁التغيير": 9658,
      "▁الشمال": 9659,
      "▁برم": 9660,
      "▁مافي": 9661,
      "▁للأن": 9662,
      "▁السكر": 9663,
      "روري": 9664,
      "▁تبحث": 9665,
      "ener": 9666,
      "وهات": 9667,
      "▁المعارضة": 9668,
      "▁أنّ": 9669,
      "▁يلعب": 9670,
      "يادي": 9671,
      "▁Calculate": 9672,
[...]
